0.000000,-0.029999,0.050001,0.010001,0.050001,0.010001,-0.029999,0.030001,0.010001,-0.029999,-0.029999,0.030001,0.010001,0.010001,0.010001,0.010001,-0.009999,0.050001,-0.009999,0.030001,0.050001,0.030001,-0.029999,0.030001,0.010001,0.070001,-0.009999,0.000000,0.010001,0.000000,0.010001,0.000000,-0.029999,0.050001,-0.049999,-0.009999,-0.029999,0.030001,0.000000,-0.049999,0.010001,0.030001,0.030001,0.050001,0.000000,0.010001,0.070001,-0.029999,0.070001,0.030001,-0.029999,-0.049999,0.010001,-0.009999,-0.069999,-0.009999,0.050001,0.000000,0.030001,0.000000,0.010001,0.050001,0.010001,0.030001,0.010001,-0.029999,0.030001,-0.049999,-0.069999,0.050001,-0.009999,0.070001,-0.009999,0.010001,-0.029999,-0.049999,0.000000,0.010001,-0.029999,-0.049999,0.000000,-0.009999,-0.009999,0.030001,0.070001,0.070001,0.010001,-0.009999,0.050001,-0.009999,0.030001,-0.009999,0.050001,-0.029999,0.050001,0.010001,-0.029999,0.010001,-0.029999,0.010001
-0.029999,0.000000,0.050001,-0.029999,-0.029999,0.010001,0.050001,-0.009999,0.050001,0.010001,0.050001,0.030001,0.000000,-0.029999,0.010001,0.010001,-0.009999,-0.029999,0.000000,0.030001,-0.029999,-0.009999,0.000000,0.000000,0.010001,-0.009999,0.030001,0.010001,0.010001,0.010001,-0.029999,0.010001,0.010001,0.010001,-0.009999,-0.049999,0.050001,0.030001,-0.009999,-0.009999,0.050001,-0.009999,-0.049999,0.050001,0.010001,0.010001,-0.049999,0.010001,0.030001,0.030001,0.050001,-0.049999,-0.029999,-0.009999,0.010001,-0.009999,-0.029999,-0.029999,0.030001,0.070001,0.010001,0.050001,0.050001,-0.009999,0.000000,0.050001,0.030001,-0.009999,0.090001,0.010001,0.030001,-0.009999,0.030001,0.010001,0.090001,-0.009999,-0.009999,0.010001,0.010001,-0.009999,0.050001,-0.009999,0.030001,0.030001,-0.009999,-0.049999,0.050001,0.000000,0.050001,0.030001,0.000000,0.030001,-0.029999,-0.029999,-0.029999,0.010001,0.010001,-0.029999,0.010001,-0.069999
0.050001,0.050001,0.000000,-0.029999,0.050001,0.050001,0.050001,0.030001,0.010001,0.050001,0.050001,0.110001,0.010001,0.050001,0.050001,0.000000,0.000000,0.010001,0.030001,0.070001,0.050001,0.070001,0.050001,0.030001,0.090001,0.030001,0.070001,0.090001,0.010001,0.090001,0.010001,0.010001,0.010001,0.010001,0.000000,-0.009999,0.050001,0.030001,0.070001,-0.009999,0.050001,0.070001,-0.049999,0.010001,0.010001,0.090001,0.030001,0.050001,0.000000,0.070001,0.010001,-0.009999,0.010001,-0.009999,-0.069999,0.030001,0.050001,0.010001,0.070001,0.030001,0.010001,0.050001,0.050001,-0.009999,0.010001,0.010001,0.070001,-0.009999,0.010001,0.010001,0.030001,0.070001,0.030001,0.050001,0.010001,-0.009999,0.030001,0.050001,0.050001,-0.009999,0.010001,0.030001,0.030001,0.070001,0.070001,-0.009999,0.090001,-0.009999,0.010001,0.070001,0.030001,-0.009999,0.010001,0.000000,0.010001,0.010001,0.000000,0.010001,-0.029999,-0.069999
0.010001,-0.029999,-0.029999,0.000000,0.010001,-0.069999,-0.069999,-0.009999,0.010001,0.000000,-0.069999,-0.009999,0.000000,0.050001,0.010001,-0.029999,-0.009999,0.050001,0.030001,-0.049999,0.010001,-0.009999,-0.029999,0.030001,0.010001,0.000000,-0.009999,-0.029999,0.000000,0.000000,-0.029999,0.010001,-0.029999,-0.029999,-0.009999,0.070001,-0.029999,-0.009999,0.030001,-0.049999,0.010001,0.000000,-0.009999,0.010001,-0.069999,-0.029999,0.070001,0.050001,0.000000,-0.009999,-0.069999,-0.009999,0.010001,-0.009999,0.010001,-0.009999,-0.029999,0.010001,-0.049999,-0.009999,0.010001,0.010001,-0.029999,0.000000,0.000000,0.050001,-0.009999,0.000000,-0.029999,0.050001,-0.009999,-0.049999,-0.049999,-0.069999,-0.029999,-0.049999,0.000000,0.010001,0.000000,0.030001,-0.029999,-0.049999,0.000000,-0.049999,0.000000,0.030001,-0.029999,0.030001,0.010001,-0.009999,-0.009999,0.030001,0.010001,0.000000,-0.029999,0.010001,-0.029999,-0.069999,-0.029999,0.010001
0.050001,-0.029999,0.050001,0.010001,0.000000,0.010001,-0.029999,0.070001,-0.029999,0.050001,0.010001,0.070001,0.010001,0.050001,0.050001,0.010001,0.030001,0.000000,0.000000,0.030001,0.010001,0.030001,0.010001,0.070001,0.050001,0.030001,0.030001,0.050001,-0.029999,0.050001,0.010001,-0.069999,0.010001,0.010001,-0.009999,0.030001,0.000000,-0.009999,0.070001,-0.009999,0.010001,0.000000,-0.009999,-0.029999,0.010001,0.010001,0.030001,0.050001,0.030001,0.030001,0.000000,0.030001,0.010001,0.030001,0.000000,-0.009999,0.010001,0.010001,-0.009999,0.030001,0.000000,0.010001,0.010001,0.000000,-0.029999,0.050001,-0.009999,-0.009999,-0.069999,0.000000,-0.049999,0.070001,-0.049999,0.050001,-0.029999,0.030001,-0.009999,0.050001,0.010001,-0.009999,0.000000,0.000000,-0.009999,0.030001,0.030001,0.030001,0.010001,0.030001,-0.029999,0.030001,-0.009999,-0.089999,0.000000,0.000000,0.000000,0.010001,0.000000,0.010001,0.010001,-0.029999
0.010001,0.010001,0.050001,-0.069999,0.010001,0.000000,0.050001,0.030001,0.000000,0.010001,0.050001,0.030001,0.010001,0.010001,0.000000,-0.029999,0.030001,-0.029999,-0.009999,0.070001,0.010001,0.030001,0.050001,0.030001,0.050001,0.030001,0.030001,0.010001,0.050001,0.000000,0.050001,-0.029999,0.010001,0.010001,-0.009999,-0.009999,0.050001,0.070001,0.000000,-0.009999,0.000000,0.030001,-0.009999,-0.029999,0.090001,0.090001,-0.009999,0.010001,-0.009999,0.030001,0.090001,0.030001,0.010001,0.070001,-0.029999,0.000000,0.000000,0.010001,0.070001,-0.009999,0.000000,0.010001,0.050001,-0.009999,0.010001,-0.069999,0.030001,0.070001,0.050001,0.010001,-0.009999,0.030001,0.000000,0.050001,-0.029999,0.000000,-0.009999,-0.029999,0.010001,-0.009999,0.050001,-0.009999,0.000000,-0.009999,0.030001,-0.009999,0.050001,0.000000,0.010001,0.030001,0.000000,0.000000,0.010001,-0.029999,0.000000,0.010001,0.010001,0.050001,0.050001,0.000000
-0.029999,0.050001,0.000000,-0.069999,-0.029999,0.050001,0.000000,0.000000,0.050001,-0.029999,0.000000,0.030001,0.010001,-0.029999,0.010001,0.010001,0.000000,-0.029999,0.030001,0.070001,0.010001,0.030001,0.050001,-0.049999,0.010001,-0.049999,-0.009999,0.050001,0.010001,0.010001,-0.029999,0.050001,0.050001,-0.029999,-0.009999,-0.049999,0.090001,0.030001,-0.009999,0.030001,-0.029999,0.000000,-0.049999,-0.029999,0.010001,0.050001,-0.049999,-0.029999,-0.009999,0.030001,0.050001,-0.009999,-0.029999,-0.009999,-0.029999,0.070001,0.050001,-0.029999,0.070001,0.030001,0.010001,0.010001,0.010001,0.030001,0.000000,-0.029999,-0.009999,0.070001,0.050001,-0.029999,0.070001,0.030001,0.030001,0.050001,0.050001,0.030001,0.000000,-0.029999,0.010001,-0.009999,0.050001,0.030001,0.030001,0.030001,0.030001,-0.049999,0.010001,-0.049999,0.010001,0.000000,-0.009999,0.030001,-0.069999,0.010001,0.050001,0.000000,-0.029999,0.050001,0.010001,0.000000
0.000000,0.000000,0.030001,0.000000,0.070001,0.030001,-0.009999,0.000000,0.030001,-0.009999,0.030001,0.000000,-0.009999,-0.009999,-0.009999,-0.049999,0.010001,-0.009999,0.010001,0.050001,-0.009999,0.000000,-0.009999,0.010001,0.000000,0.010001,0.000000,0.030001,0.030001,0.030001,-0.009999,-0.009999,0.070001,0.070001,-0.069999,0.050001,0.000000,0.000000,0.000000,-0.029999,0.030001,0.050001,-0.069999,-0.009999,0.030001,0.030001,-0.029999,0.030001,0.050001,-0.029999,-0.009999,0.000000,0.030001,0.050001,-0.049999,0.010001,0.000000,-0.009999,0.010001,-0.029999,0.070001,0.030001,-0.009999,0.050001,-0.049999,0.030001,-0.029999,0.010001,-0.009999,0.030001,0.010001,0.050001,-0.029999,-0.009999,-0.009999,0.050001,-0.029999,-0.009999,0.030001,-0.029999,0.070001,0.010001,0.050001,0.010001,0.010001,0.050001,-0.009999,-0.029999,-0.009999,0.000000,0.010001,-0.069999,0.030001,-0.009999,-0.009999,-0.049999,0.030001,-0.009999,-0.009999,0.000000
0.010001,0.050001,0.010001,0.010001,-0.029999,0.010001,0.050001,0.030001,0.000000,-0.069999,0.010001,-0.009999,0.010001,-0.069999,-0.029999,-0.069999,0.000000,-0.029999,0.000000,0.030001,0.010001,-0.009999,-0.029999,0.000000,-0.029999,-0.009999,-0.049999,-0.029999,0.050001,0.000000,-0.069999,0.050001,0.010001,0.010001,-0.049999,0.000000,0.050001,0.000000,-0.009999,0.000000,0.010001,0.030001,-0.049999,0.050001,0.010001,0.010001,-0.009999,-0.029999,0.070001,0.030001,0.000000,-0.049999,-0.029999,0.030001,-0.069999,0.030001,0.010001,-0.029999,0.030001,0.030001,0.090001,0.050001,0.010001,0.030001,0.010001,0.010001,-0.049999,-0.009999,0.050001,0.000000,0.070001,-0.009999,0.000000,-0.029999,0.050001,-0.009999,0.000000,-0.029999,-0.029999,-0.049999,0.050001,-0.049999,0.030001,0.000000,-0.049999,0.030001,-0.029999,-0.049999,0.050001,-0.049999,0.030001,0.030001,-0.029999,0.050001,0.010001,-0.029999,-0.069999,0.010001,0.000000,0.010001
-0.029999,0.010001,0.050001,0.010001,0.050001,0.010001,-0.029999,-0.009999,-0.069999,0.000000,0.050001,0.070001,0.010001,0.090001,0.050001,0.050001,0.030001,0.010001,-0.009999,-0.009999,0.010001,0.030001,0.050001,0.070001,0.000000,0.030001,0.110001,0.050001,-0.029999,0.000000,0.050001,-0.069999,-0.029999,-0.029999,0.030001,0.030001,0.010001,-0.009999,0.070001,0.030001,0.050001,0.030001,-0.009999,-0.029999,0.010001,0.050001,0.030001,0.090001,-0.009999,0.030001,0.010001,0.030001,0.010001,-0.009999,0.010001,-0.009999,-0.029999,0.010001,-0.009999,0.030001,-0.029999,-0.029999,0.050001,-0.089999,0.010001,0.050001,0.070001,-0.009999,0.010001,-0.029999,-0.049999,-0.009999,0.030001,0.010001,-0.029999,0.000000,0.070001,0.090001,0.000000,0.070001,-0.029999,0.030001,-0.009999,0.030001,0.000000,-0.049999,0.090001,0.070001,-0.069999,0.110001,0.030001,-0.049999,0.000000,-0.029999,-0.069999,0.050001,0.050001,-0.029999,0.010001,-0.069999
-0.029999,0.000000,0.050001,-0.069999,0.010001,0.000000,0.050001,0.030001,0.010001,0.050001,0.000000,0.030001,0.050001,0.010001,0.050001,0.010001,0.070001,-0.029999,-0.009999,0.030001,-0.029999,-0.009999,0.010001,0.000000,0.050001,-0.009999,0.030001,0.050001,0.010001,0.050001,0.010001,-0.029999,0.010001,0.010001,-0.009999,-0.009999,0.050001,0.000000,0.030001,0.000000,0.010001,0.070001,-0.049999,0.010001,0.050001,0.050001,-0.049999,0.010001,-0.009999,0.000000,0.050001,-0.009999,-0.029999,-0.009999,-0.029999,-0.009999,0.010001,-0.069999,0.070001,0.030001,0.050001,-0.029999,0.050001,-0.049999,0.010001,0.010001,0.030001,0.030001,0.050001,-0.069999,-0.009999,-0.009999,0.070001,0.000000,0.010001,0.030001,0.030001,0.050001,0.010001,0.030001,0.050001,0.070001,0.030001,0.030001,-0.009999,-0.049999,0.050001,-0.009999,-0.029999,0.030001,0.030001,0.000000,0.010001,-0.069999,-0.029999,0.010001,0.010001,0.000000,0.010001,-0.069999
0.030001,0.030001,0.110001,-0.009999,0.070001,0.030001,0.030001,0.010001,-0.009999,0.070001,0.030001,0.000000,0.030001,0.000000,0.070001,0.000000,0.050001,0.030001,0.050001,0.050001,0.000000,0.050001,0.070001,0.000000,0.070001,0.010001,0.090001,0.070001,-0.009999,0.070001,0.030001,-0.009999,-0.009999,-0.009999,0.000000,0.010001,0.070001,0.010001,0.090001,0.010001,0.030001,0.050001,-0.029999,-0.009999,-0.009999,0.070001,0.050001,0.070001,0.050001,0.090001,-0.009999,0.010001,-0.009999,0.010001,-0.049999,0.010001,0.030001,0.030001,0.050001,0.050001,-0.009999,0.030001,0.030001,-0.029999,-0.009999,0.030001,0.050001,-0.029999,-0.009999,-0.009999,0.010001,0.000000,0.000000,0.070001,-0.009999,0.000000,0.010001,0.070001,0.030001,0.010001,0.000000,0.010001,0.010001,0.050001,0.050001,0.000000,0.070001,0.010001,-0.009999,0.090001,0.010001,-0.029999,-0.009999,-0.009999,-0.009999,0.030001,-0.009999,0.030001,-0.009999,-0.049999
0.010001,0.010001,0.010001,-0.029999,0.010001,0.010001,0.010001,-0.009999,0.010001,0.010001,0.050001,0.030001,0.000000,0.010001,0.050001,0.050001,0.070001,-0.029999,0.030001,-0.009999,-0.029999,-0.009999,0.010001,-0.009999,-0.029999,-0.009999,0.030001,-0.029999,0.050001,-0.029999,0.050001,-0.029999,-0.069999,0.050001,-0.049999,0.030001,0.050001,-0.009999,-0.009999,0.030001,0.010001,-0.009999,0.030001,0.050001,0.050001,0.010001,0.030001,-0.029999,-0.009999,0.000000,0.010001,-0.049999,-0.109999,0.030001,-0.029999,-0.009999,0.050001,-0.069999,0.070001,0.070001,0.010001,0.000000,0.050001,-0.009999,0.010001,0.000000,0.030001,0.000000,0.010001,-0.069999,0.000000,-0.009999,0.070001,0.010001,0.010001,0.000000,-0.009999,0.000000,-0.069999,0.030001,-0.029999,0.030001,0.030001,0.030001,-0.009999,0.030001,0.010001,-0.009999,-0.029999,0.030001,0.030001,-0.049999,-0.029999,-0.029999,-0.029999,0.090001,0.000000,0.010001,0.050001,0.010001
0.010001,-0.029999,0.050001,0.050001,0.050001,0.010001,-0.029999,-0.009999,-0.069999,0.000000,0.000000,0.070001,0.010001,0.000000,0.090001,0.050001,0.070001,0.050001,0.030001,0.000000,0.010001,0.030001,0.050001,0.110001,0.090001,0.000000,0.070001,0.050001,0.010001,0.090001,0.050001,-0.029999,-0.029999,-0.029999,-0.009999,0.070001,0.010001,0.030001,0.070001,-0.009999,0.010001,0.030001,-0.009999,-0.029999,-0.029999,0.050001,0.070001,0.090001,-0.009999,0.030001,-0.029999,0.030001,0.010001,-0.009999,0.010001,-0.009999,0.010001,0.010001,0.030001,-0.009999,-0.029999,-0.029999,0.010001,-0.049999,0.000000,0.010001,0.070001,-0.009999,-0.029999,-0.029999,-0.049999,-0.009999,0.030001,0.010001,-0.069999,-0.009999,0.070001,0.050001,0.050001,0.000000,-0.029999,0.030001,-0.049999,-0.009999,0.030001,-0.009999,0.050001,0.030001,-0.029999,0.070001,-0.009999,-0.009999,0.010001,-0.029999,-0.029999,0.050001,0.010001,-0.029999,-0.029999,-0.029999
0.010001,0.000000,0.050001,0.010001,0.050001,0.000000,0.010001,0.000000,-0.029999,0.050001,0.050001,0.000000,0.050001,0.090001,0.000000,0.050001,0.110001,0.050001,0.030001,-0.009999,-0.029999,-0.009999,0.010001,0.070001,0.050001,-0.049999,0.030001,0.050001,0.010001,0.050001,0.010001,-0.029999,-0.029999,-0.029999,-0.009999,0.030001,0.050001,0.030001,0.000000,0.030001,-0.029999,0.030001,-0.009999,0.010001,-0.029999,0.010001,0.030001,0.050001,-0.009999,0.070001,0.000000,-0.009999,-0.029999,0.000000,0.000000,-0.049999,0.010001,-0.029999,0.070001,0.030001,0.010001,-0.029999,0.010001,-0.049999,0.000000,0.010001,0.030001,-0.009999,-0.029999,-0.069999,-0.049999,-0.009999,0.030001,0.050001,-0.029999,0.030001,0.030001,0.050001,0.010001,0.030001,0.010001,0.030001,-0.049999,0.000000,0.030001,-0.009999,0.010001,-0.009999,0.010001,0.030001,0.000000,-0.009999,-0.029999,-0.069999,-0.029999,0.050001,-0.029999,0.010001,-0.029999,-0.029999
0.010001,0.010001,0.050001,-0.029999,0.000000,-0.029999,0.010001,0.000000,-0.069999,0.050001,0.010001,0.070001,0.050001,0.050001,0.050001,0.000000,0.030001,0.000000,0.030001,-0.009999,0.010001,0.030001,0.050001,0.030001,0.010001,-0.009999,0.070001,0.050001,-0.029999,0.010001,0.050001,0.010001,-0.029999,0.010001,-0.009999,0.000000,0.010001,0.000000,0.030001,0.030001,0.010001,-0.009999,0.030001,0.010001,0.000000,0.010001,0.030001,0.010001,-0.009999,0.030001,-0.029999,-0.009999,-0.029999,-0.049999,0.010001,-0.009999,0.050001,0.010001,0.030001,0.030001,-0.069999,-0.029999,0.010001,-0.009999,0.010001,0.010001,0.070001,-0.049999,-0.029999,-0.069999,0.000000,0.030001,0.030001,0.050001,0.010001,-0.009999,0.030001,0.050001,0.010001,0.030001,-0.069999,0.070001,0.030001,0.070001,0.070001,-0.009999,0.050001,0.000000,-0.029999,0.000000,0.000000,-0.009999,-0.029999,-0.029999,0.010001,0.050001,0.000000,0.010001,-0.029999,-0.029999
-0.009999,-0.009999,0.030001,-0.009999,0.030001,0.030001,0.030001,0.010001,-0.009999,0.030001,0.070001,0.050001,0.070001,0.070001,0.110001,0.030001,0.000000,0.030001,0.050001,0.010001,-0.049999,-0.029999,0.030001,0.050001,0.030001,-0.069999,0.000000,0.030001,0.030001,0.030001,0.030001,-0.009999,0.000000,-0.009999,-0.029999,0.050001,0.000000,0.010001,0.050001,0.050001,-0.049999,0.050001,-0.029999,-0.009999,-0.009999,0.030001,0.010001,0.030001,-0.029999,0.050001,-0.009999,0.010001,-0.049999,0.010001,-0.009999,-0.029999,0.030001,-0.049999,0.090001,0.010001,0.030001,0.000000,-0.009999,-0.029999,-0.049999,-0.009999,0.010001,0.010001,0.000000,-0.089999,-0.029999,-0.029999,0.050001,0.030001,-0.049999,0.050001,0.010001,0.030001,-0.009999,0.050001,0.000000,0.050001,-0.029999,-0.029999,0.010001,0.010001,-0.009999,-0.029999,-0.009999,0.000000,-0.029999,-0.029999,-0.049999,0.000000,-0.009999,0.030001,-0.049999,0.030001,-0.009999,-0.009999
0.050001,-0.029999,0.010001,0.050001,0.050001,0.000000,-0.029999,-0.009999,-0.029999,0.010001,-0.029999,0.030001,-0.029999,0.050001,0.050001,0.010001,0.000000,0.000000,0.000000,0.030001,0.000000,-0.049999,-0.029999,0.070001,0.010001,-0.009999,-0.009999,0.010001,-0.069999,0.010001,0.010001,0.010001,0.010001,-0.029999,0.030001,-0.009999,0.010001,0.030001,0.070001,-0.009999,-0.069999,0.030001,-0.009999,-0.029999,-0.069999,-0.029999,0.030001,0.010001,0.000000,0.030001,-0.029999,-0.009999,0.010001,-0.049999,0.010001,0.000000,-0.029999,0.010001,-0.009999,0.000000,0.000000,0.050001,-0.069999,-0.009999,-0.069999,0.010001,-0.009999,-0.009999,-0.069999,0.010001,-0.009999,0.000000,-0.049999,0.000000,-0.069999,-0.009999,0.030001,0.050001,-0.029999,0.000000,0.010001,-0.009999,-0.089999,0.000000,0.030001,0.030001,0.000000,0.000000,0.050001,-0.009999,-0.049999,-0.009999,0.010001,-0.029999,0.050001,-0.029999,-0.029999,0.010001,-0.029999,-0.029999
-0.009999,0.030001,0.030001,0.000000,0.000000,-0.009999,0.030001,0.010001,0.030001,-0.009999,-0.009999,0.050001,0.030001,0.030001,0.030001,0.030001,0.050001,0.000000,0.000000,0.050001,-0.049999,-0.029999,0.030001,0.010001,-0.009999,-0.069999,0.010001,-0.009999,0.000000,-0.009999,0.030001,0.070001,0.030001,0.030001,-0.069999,0.050001,0.000000,0.000000,0.010001,-0.029999,-0.009999,0.010001,-0.069999,0.000000,-0.049999,0.030001,0.000000,0.030001,0.010001,0.010001,-0.009999,0.010001,-0.049999,0.010001,-0.009999,0.010001,0.000000,-0.009999,0.050001,0.010001,-0.009999,0.000000,-0.049999,0.050001,-0.089999,0.030001,0.010001,-0.029999,0.030001,-0.009999,0.050001,-0.029999,0.010001,-0.009999,-0.009999,0.010001,-0.029999,-0.009999,0.000000,0.050001,0.030001,0.010001,0.010001,-0.029999,0.010001,0.000000,-0.009999,-0.069999,0.030001,0.010001,-0.029999,0.010001,-0.089999,0.030001,0.030001,-0.009999,-0.049999,-0.009999,-0.009999,-0.009999
0.030001,0.030001,0.000000,-0.049999,0.030001,0.070001,0.070001,0.050001,0.030001,-0.009999,0.030001,0.050001,-0.009999,-0.009999,-0.009999,0.000000,0.010001,0.030001,0.050001,0.000000,-0.009999,0.010001,0.030001,0.010001,0.030001,0.010001,0.010001,0.030001,-0.009999,0.030001,0.030001,0.030001,0.000000,0.030001,-0.029999,-0.029999,0.070001,0.050001,0.010001,-0.029999,-0.009999,0.050001,-0.069999,-0.049999,0.030001,0.070001,-0.029999,-0.009999,0.000000,0.010001,0.070001,0.010001,0.000000,0.000000,-0.049999,0.050001,0.030001,-0.009999,0.050001,0.010001,-0.009999,0.070001,-0.009999,0.050001,-0.049999,-0.009999,0.000000,0.050001,0.030001,0.030001,0.050001,0.050001,0.010001,0.030001,-0.009999,0.010001,-0.029999,-0.009999,-0.009999,0.000000,0.070001,0.000000,0.010001,0.010001,0.050001,0.010001,0.030001,0.000000,0.030001,0.000000,0.010001,-0.029999,-0.009999,-0.009999,0.070001,-0.049999,-0.009999,0.030001,0.030001,-0.049999
0.050001,-0.029999,0.000000,0.010001,0.010001,0.010001,0.010001,-0.009999,0.010001,0.010001,-0.029999,0.030001,-0.029999,0.010001,-0.029999,0.010001,-0.049999,0.000000,-0.049999,-0.009999,0.000000,0.110001,0.050001,-0.009999,0.050001,0.070001,0.030001,0.000000,0.010001,0.050001,0.000000,0.010001,-0.029999,-0.029999,-0.009999,-0.009999,-0.029999,-0.009999,0.000000,-0.009999,0.050001,0.000000,0.030001,0.010001,0.010001,0.050001,0.070001,0.010001,0.070001,0.030001,-0.029999,-0.009999,0.050001,-0.009999,0.000000,0.070001,0.050001,0.050001,-0.009999,-0.009999,0.010001,0.010001,0.050001,-0.009999,0.090001,-0.029999,0.030001,-0.009999,-0.029999,0.050001,0.030001,0.070001,-0.009999,0.010001,0.010001,-0.049999,0.030001,0.010001,0.000000,-0.049999,-0.069999,-0.009999,0.030001,0.070001,0.030001,-0.009999,0.050001,0.070001,-0.029999,0.030001,0.000000,0.030001,0.050001,0.050001,0.010001,0.010001,0.010001,0.010001,-0.029999,0.010001
0.030001,-0.009999,0.070001,-0.009999,0.000000,0.000000,0.030001,0.010001,-0.009999,0.030001,-0.009999,0.050001,-0.009999,0.030001,-0.009999,0.030001,-0.029999,-0.049999,-0.029999,0.010001,0.110001,0.000000,0.070001,0.010001,0.000000,0.050001,0.050001,0.070001,0.030001,0.070001,-0.009999,-0.009999,-0.009999,-0.009999,-0.029999,0.000000,0.000000,0.010001,0.010001,-0.029999,0.070001,0.010001,0.010001,-0.009999,0.030001,0.070001,0.050001,0.030001,0.050001,0.010001,-0.009999,0.010001,0.030001,0.000000,0.000000,0.090001,0.070001,0.030001,0.010001,0.010001,-0.009999,-0.009999,0.070001,0.010001,0.070001,-0.009999,0.050001,0.010001,-0.009999,0.030001,0.010001,0.090001,0.010001,0.030001,0.030001,-0.029999,0.010001,-0.009999,0.070001,-0.029999,-0.049999,0.010001,0.050001,0.000000,0.050001,-0.029999,0.070001,0.050001,-0.049999,0.050001,0.050001,0.010001,0.030001,0.030001,-0.009999,0.030001,0.030001,0.000000,-0.009999,-0.009999
-0.029999,0.000000,0.050001,-0.029999,0.010001,0.050001,0.050001,-0.009999,-0.029999,0.050001,0.010001,0.070001,0.010001,0.050001,0.010001,0.050001,0.030001,-0.029999,0.030001,0.030001,0.050001,0.000000,0.000000,0.030001,0.050001,-0.009999,0.070001,0.000000,0.010001,0.050001,0.050001,0.010001,0.000000,-0.029999,-0.009999,0.030001,0.000000,-0.009999,0.030001,0.030001,0.010001,0.030001,-0.009999,-0.069999,0.010001,0.090001,0.030001,0.050001,-0.009999,0.030001,0.010001,0.070001,0.000000,0.030001,-0.029999,0.070001,0.050001,0.050001,0.030001,-0.009999,-0.029999,-0.029999,0.010001,-0.009999,0.010001,-0.029999,0.000000,0.030001,0.010001,-0.029999,0.030001,0.030001,0.030001,0.050001,-0.029999,0.030001,-0.009999,0.010001,0.050001,0.030001,-0.029999,0.000000,0.030001,0.030001,0.030001,-0.009999,0.050001,0.030001,-0.069999,0.070001,0.030001,-0.009999,-0.029999,0.050001,0.010001,0.010001,0.010001,0.050001,0.010001,0.010001
0.030001,-0.049999,0.030001,0.030001,0.070001,0.030001,-0.049999,0.010001,-0.089999,0.070001,-0.009999,0.050001,-0.009999,0.110001,0.070001,0.030001,0.000000,0.070001,0.010001,0.010001,-0.009999,0.010001,0.030001,0.000000,0.070001,0.010001,0.050001,0.030001,-0.009999,0.070001,0.070001,-0.049999,-0.009999,-0.009999,0.010001,0.050001,-0.009999,0.050001,0.050001,-0.029999,-0.009999,0.010001,0.000000,-0.049999,0.000000,0.030001,0.050001,0.070001,-0.029999,0.010001,0.000000,0.000000,0.000000,0.010001,0.030001,-0.029999,-0.009999,0.030001,0.010001,-0.029999,-0.049999,-0.009999,-0.009999,-0.029999,-0.049999,-0.009999,0.050001,0.010001,-0.049999,-0.009999,-0.069999,0.010001,0.010001,0.030001,-0.089999,0.010001,0.050001,0.030001,0.030001,0.050001,-0.009999,0.010001,-0.069999,-0.029999,0.050001,0.010001,0.030001,0.010001,-0.009999,0.050001,-0.029999,-0.029999,0.030001,-0.049999,-0.009999,0.030001,0.030001,-0.009999,-0.009999,0.000000
0.010001,0.000000,0.090001,0.010001,0.050001,0.050001,0.010001,0.030001,-0.029999,0.090001,0.050001,0.070001,-0.029999,0.090001,0.050001,0.010001,0.030001,0.010001,-0.009999,0.030001,0.050001,0.070001,0.050001,0.070001,0.000000,0.030001,0.070001,0.090001,0.010001,0.130001,0.010001,-0.029999,0.010001,-0.029999,-0.009999,0.030001,0.010001,0.030001,0.070001,-0.009999,0.050001,0.070001,-0.049999,0.000000,0.010001,0.090001,0.000000,0.090001,0.030001,0.030001,0.000000,0.030001,0.050001,-0.009999,-0.029999,0.030001,0.010001,0.010001,0.030001,-0.009999,0.010001,0.010001,0.050001,-0.049999,0.010001,0.010001,0.070001,0.000000,0.000000,0.010001,0.000000,0.030001,0.030001,0.010001,-0.029999,-0.009999,0.070001,0.050001,0.090001,0.030001,0.010001,0.030001,-0.009999,0.000000,0.000000,-0.049999,0.090001,0.030001,-0.029999,0.070001,0.030001,-0.009999,0.050001,-0.029999,-0.029999,0.010001,0.050001,-0.029999,-0.029999,-0.069999
0.000000,0.000000,0.030001,-0.009999,0.030001,0.030001,-0.049999,0.010001,-0.009999,0.030001,0.000000,0.010001,-0.009999,-0.009999,-0.049999,-0.009999,-0.069999,-0.009999,-0.069999,0.010001,0.070001,0.000000,-0.009999,0.010001,0.030001,0.000000,0.050001,-0.009999,-0.009999,0.030001,0.030001,-0.049999,-0.049999,0.030001,0.010001,-0.029999,-0.049999,0.010001,0.010001,-0.029999,0.070001,0.010001,0.050001,0.030001,0.070001,0.030001,0.050001,-0.009999,0.050001,0.010001,0.030001,-0.029999,0.030001,0.010001,-0.049999,0.000000,-0.009999,0.030001,0.000000,0.000000,-0.009999,0.030001,0.070001,-0.029999,0.070001,-0.009999,0.050001,-0.029999,-0.009999,0.070001,-0.029999,0.050001,0.000000,-0.009999,-0.009999,-0.069999,0.050001,0.030001,-0.009999,-0.029999,-0.049999,-0.029999,0.010001,0.050001,0.010001,0.010001,0.070001,0.050001,-0.009999,0.050001,0.090001,-0.029999,0.110001,-0.009999,-0.009999,0.030001,0.030001,-0.009999,0.030001,-0.009999
-0.009999,0.030001,0.070001,-0.009999,0.030001,0.030001,0.000000,-0.029999,-0.049999,0.110001,0.030001,0.000000,0.030001,0.070001,0.030001,0.070001,0.010001,-0.009999,0.010001,0.010001,0.030001,0.050001,0.070001,0.050001,0.070001,0.050001,0.000000,0.030001,-0.009999,0.070001,0.070001,0.000000,-0.049999,-0.009999,0.000000,0.010001,0.030001,0.010001,0.050001,0.010001,0.070001,0.010001,0.010001,0.000000,0.030001,0.070001,0.050001,0.070001,0.010001,0.050001,0.030001,0.010001,-0.009999,0.010001,-0.009999,0.010001,-0.009999,0.030001,0.010001,0.050001,-0.049999,-0.009999,0.070001,0.000000,0.030001,0.030001,0.090001,-0.029999,0.030001,-0.009999,-0.029999,0.010001,0.000000,0.030001,-0.009999,-0.029999,0.050001,0.070001,0.030001,0.050001,-0.049999,0.010001,0.010001,0.050001,0.010001,-0.029999,0.110001,0.050001,-0.049999,0.130001,0.050001,-0.029999,0.030001,-0.009999,-0.049999,0.070001,0.030001,-0.009999,0.030001,0.000000
0.010001,0.010001,0.090001,-0.029999,0.050001,0.010001,0.050001,0.000000,-0.029999,0.050001,0.050001,0.070001,-0.029999,0.050001,0.050001,0.000000,0.030001,0.010001,-0.009999,0.030001,0.050001,0.070001,0.050001,0.030001,0.090001,-0.009999,0.030001,0.000000,-0.029999,0.090001,-0.029999,0.010001,0.050001,-0.029999,-0.009999,-0.009999,0.010001,-0.009999,0.070001,0.030001,0.010001,0.070001,-0.049999,-0.029999,-0.029999,0.050001,-0.009999,0.050001,0.030001,0.030001,-0.029999,0.030001,0.050001,-0.049999,-0.029999,0.030001,0.000000,0.000000,0.030001,-0.009999,0.010001,0.010001,0.010001,-0.009999,0.010001,0.010001,0.030001,0.030001,-0.029999,-0.029999,0.030001,0.070001,-0.009999,0.000000,0.010001,0.030001,0.030001,0.050001,0.090001,-0.009999,0.000000,0.000000,0.030001,0.070001,0.070001,-0.049999,0.050001,0.030001,-0.029999,0.030001,0.000000,-0.009999,0.010001,-0.029999,0.010001,-0.029999,0.050001,0.000000,-0.069999,-0.069999
0.010001,0.010001,0.010001,0.010001,-0.029999,0.050001,0.000000,0.030001,0.050001,-0.029999,0.010001,-0.009999,0.000000,0.010001,0.010001,0.000000,0.030001,-0.069999,0.030001,-0.009999,0.010001,0.030001,0.000000,-0.009999,0.010001,-0.009999,-0.009999,-0.029999,0.000000,0.010001,0.010001,0.010001,-0.029999,0.050001,-0.089999,0.070001,0.000000,0.030001,-0.049999,-0.049999,0.050001,-0.009999,-0.009999,0.050001,0.050001,0.050001,0.030001,0.010001,0.030001,-0.009999,0.010001,-0.009999,-0.029999,0.070001,-0.029999,0.030001,0.050001,-0.029999,0.070001,-0.009999,0.050001,0.000000,0.050001,0.030001,0.010001,-0.029999,0.030001,-0.009999,0.050001,0.010001,-0.009999,-0.009999,0.070001,-0.029999,0.010001,-0.009999,-0.009999,-0.069999,0.010001,-0.009999,0.010001,-0.009999,0.030001,-0.009999,-0.009999,0.030001,0.010001,-0.049999,0.010001,0.000000,0.030001,0.030001,-0.029999,0.010001,-0.029999,0.050001,-0.029999,-0.029999,0.010001,0.050001
0.010001,0.010001,0.090001,0.010001,0.050001,0.050001,0.000000,0.030001,-0.029999,0.000000,0.050001,0.070001,-0.029999,0.090001,0.050001,0.010001,0.030001,0.010001,-0.009999,0.030001,0.050001,0.070001,0.050001,0.070001,0.130001,0.000000,0.070001,0.090001,0.010001,0.000000,0.000000,-0.029999,0.010001,-0.029999,0.000000,0.000000,0.010001,0.030001,0.070001,-0.009999,0.050001,0.070001,-0.049999,-0.029999,0.010001,0.000000,0.030001,0.090001,0.030001,0.030001,0.010001,0.030001,0.050001,-0.009999,-0.029999,0.030001,0.000000,0.010001,0.000000,-0.009999,0.010001,0.010001,0.050001,-0.049999,0.010001,0.010001,0.070001,0.030001,0.010001,0.000000,-0.009999,0.030001,0.030001,0.010001,-0.029999,-0.009999,0.070001,0.050001,0.090001,0.030001,0.010001,0.000000,-0.009999,0.030001,0.030001,-0.049999,0.090001,0.030001,-0.029999,0.070001,0.030001,-0.009999,0.050001,-0.029999,-0.029999,0.010001,0.050001,-0.029999,-0.029999,-0.069999
0.010001,-0.029999,0.000000,-0.029999,0.010001,0.050001,-0.029999,0.000000,-0.069999,0.050001,0.010001,0.030001,0.050001,0.000000,0.010001,0.050001,0.000000,0.010001,0.030001,0.030001,-0.029999,-0.009999,0.050001,0.070001,0.000000,0.030001,0.070001,0.000000,0.000000,0.010001,0.000000,0.000000,-0.029999,0.050001,-0.009999,0.000000,0.010001,0.030001,-0.009999,-0.009999,0.010001,-0.009999,0.030001,-0.029999,0.050001,0.050001,0.030001,0.010001,-0.049999,0.000000,0.050001,0.030001,-0.029999,0.030001,0.010001,-0.009999,0.010001,0.010001,0.030001,-0.009999,-0.069999,-0.029999,0.000000,-0.009999,-0.029999,-0.029999,0.000000,-0.009999,0.010001,-0.029999,0.000000,-0.009999,0.070001,0.010001,-0.069999,-0.009999,0.030001,0.010001,-0.029999,0.070001,-0.029999,0.030001,0.000000,-0.009999,0.030001,0.030001,0.050001,-0.009999,-0.029999,0.070001,0.030001,-0.049999,0.010001,-0.029999,0.010001,0.050001,0.010001,0.010001,0.000000,0.000000
0.010001,0.010001,0.010001,0.010001,-0.069999,-0.029999,0.000000,-0.009999,0.050001,-0.069999,-0.029999,-0.009999,-0.029999,-0.029999,-0.029999,0.010001,-0.009999,0.010001,0.070001,0.030001,0.000000,-0.009999,0.010001,0.000000,-0.029999,-0.049999,0.000000,0.010001,0.010001,-0.029999,0.000000,0.000000,0.050001,0.010001,-0.049999,-0.009999,0.010001,-0.009999,-0.009999,-0.009999,-0.029999,0.000000,-0.049999,0.010001,0.000000,0.010001,-0.009999,-0.029999,0.030001,-0.009999,-0.029999,-0.009999,0.010001,-0.049999,-0.029999,0.030001,0.050001,0.010001,0.030001,-0.049999,0.010001,0.050001,-0.069999,0.070001,-0.029999,-0.029999,-0.009999,-0.009999,0.010001,0.000000,0.110001,-0.009999,0.000000,-0.029999,0.010001,-0.009999,-0.009999,-0.029999,0.010001,-0.009999,0.010001,0.030001,0.030001,-0.009999,0.030001,0.030001,-0.029999,-0.049999,0.050001,-0.049999,-0.009999,0.000000,0.000000,0.050001,0.090001,-0.069999,-0.029999,0.010001,-0.069999,0.000000
-0.029999,0.010001,0.010001,-0.029999,0.010001,0.010001,0.050001,0.070001,0.010001,-0.029999,0.010001,-0.009999,-0.069999,-0.029999,-0.029999,-0.029999,-0.009999,0.010001,0.030001,0.070001,-0.029999,-0.009999,0.010001,0.000000,0.010001,-0.049999,-0.049999,0.050001,-0.029999,0.010001,-0.029999,0.050001,0.000000,0.000000,-0.009999,-0.009999,0.010001,-0.009999,-0.009999,-0.009999,-0.029999,0.030001,-0.089999,-0.069999,-0.029999,0.010001,-0.089999,0.010001,-0.009999,-0.049999,0.010001,0.000000,0.050001,-0.009999,0.010001,0.030001,0.010001,0.010001,0.000000,-0.049999,0.010001,0.050001,-0.069999,0.000000,0.000000,0.010001,-0.049999,0.070001,0.010001,0.000000,0.070001,0.030001,-0.049999,0.010001,0.010001,0.070001,0.000000,-0.029999,0.050001,-0.009999,0.090001,0.000000,0.030001,-0.009999,0.030001,-0.009999,-0.029999,0.000000,0.000000,-0.049999,-0.049999,-0.009999,-0.029999,0.010001,0.050001,-0.109999,0.050001,0.010001,-0.029999,-0.029999
0.050001,0.010001,0.010001,-0.029999,0.010001,0.010001,-0.029999,0.070001,0.010001,-0.029999,0.000000,-0.009999,0.050001,-0.029999,-0.029999,0.010001,-0.009999,-0.029999,0.030001,0.030001,-0.029999,-0.009999,-0.029999,-0.009999,-0.029999,0.030001,-0.009999,-0.029999,0.050001,-0.029999,0.050001,0.010001,0.010001,0.000000,-0.089999,0.030001,-0.029999,-0.009999,-0.049999,-0.049999,0.050001,0.000000,-0.009999,0.050001,0.050001,0.010001,-0.009999,-0.029999,0.030001,-0.049999,0.010001,-0.009999,-0.029999,0.030001,-0.029999,-0.009999,0.050001,-0.029999,0.030001,-0.009999,0.000000,0.010001,0.010001,0.070001,-0.029999,0.010001,0.030001,-0.049999,0.000000,0.010001,-0.009999,0.000000,0.030001,-0.029999,0.000000,-0.009999,-0.009999,-0.029999,-0.029999,-0.009999,0.010001,0.030001,0.070001,0.030001,0.030001,0.070001,0.010001,-0.049999,0.010001,-0.009999,0.000000,-0.049999,0.010001,-0.029999,0.010001,0.010001,0.010001,0.000000,0.010001,0.010001
-0.049999,-0.009999,-0.049999,-0.009999,-0.009999,-0.009999,-0.009999,-0.069999,-0.049999,0.030001,-0.009999,-0.029999,-0.049999,-0.009999,0.000000,-0.009999,-0.029999,0.030001,-0.069999,-0.029999,0.000000,-0.029999,-0.009999,0.010001,0.000000,0.010001,0.010001,-0.009999,0.000000,-0.009999,-0.009999,-0.049999,-0.009999,-0.089999,0.000000,-0.069999,-0.009999,0.010001,0.010001,0.050001,-0.049999,-0.029999,0.000000,-0.049999,-0.009999,-0.049999,-0.029999,0.000000,-0.069999,0.010001,0.030001,0.010001,0.030001,-0.029999,0.070001,-0.029999,-0.089999,0.030001,-0.069999,0.000000,-0.049999,-0.009999,-0.009999,-0.069999,0.030001,-0.009999,-0.029999,0.050001,-0.009999,-0.009999,-0.029999,0.000000,-0.029999,0.030001,-0.009999,0.010001,0.010001,0.030001,-0.009999,0.010001,-0.009999,-0.029999,-0.069999,-0.029999,-0.029999,-0.069999,-0.009999,0.050001,-0.009999,0.010001,-0.029999,0.010001,0.030001,-0.009999,-0.009999,-0.009999,0.030001,0.030001,0.030001,-0.009999
-0.009999,-0.049999,-0.009999,0.070001,0.030001,-0.009999,-0.049999,0.050001,0.000000,0.030001,-0.009999,0.010001,0.030001,0.070001,0.030001,-0.009999,0.050001,-0.009999,0.050001,-0.029999,-0.009999,0.010001,0.030001,0.050001,0.030001,-0.029999,0.010001,-0.009999,0.070001,0.030001,0.030001,-0.009999,-0.009999,0.030001,-0.069999,0.000000,-0.009999,-0.029999,0.010001,-0.029999,0.030001,0.010001,-0.029999,-0.009999,-0.009999,0.030001,0.050001,0.070001,0.010001,-0.029999,-0.049999,0.050001,-0.009999,0.050001,-0.009999,0.000000,0.030001,-0.009999,0.010001,-0.029999,0.030001,0.000000,-0.009999,0.010001,-0.049999,0.000000,0.010001,-0.029999,-0.009999,0.000000,-0.029999,-0.029999,0.000000,-0.049999,-0.049999,0.010001,0.010001,-0.009999,0.030001,0.050001,-0.009999,0.010001,0.000000,0.000000,-0.029999,0.050001,0.000000,0.010001,-0.049999,0.010001,0.010001,-0.029999,-0.009999,0.030001,-0.049999,0.030001,-0.009999,-0.049999,-0.009999,0.030001
-0.029999,0.050001,0.050001,-0.029999,0.010001,0.000000,0.090001,-0.009999,0.050001,0.010001,0.050001,0.070001,0.050001,0.010001,0.050001,0.010001,0.070001,0.000000,0.070001,0.000000,-0.029999,-0.009999,0.050001,-0.009999,0.010001,-0.049999,0.030001,0.010001,0.010001,0.010001,0.010001,0.010001,0.010001,-0.029999,-0.009999,-0.009999,0.000000,0.030001,0.000000,0.030001,-0.029999,0.030001,-0.049999,-0.029999,0.010001,0.050001,0.000000,0.000000,-0.009999,0.000000,0.050001,-0.009999,-0.069999,0.030001,-0.029999,0.030001,0.010001,-0.029999,0.070001,0.070001,0.010001,0.010001,0.010001,-0.009999,-0.029999,0.010001,-0.009999,0.000000,0.050001,-0.029999,0.030001,-0.009999,0.030001,0.050001,0.010001,0.030001,-0.049999,0.000000,-0.029999,0.030001,0.050001,-0.009999,-0.009999,-0.009999,-0.009999,-0.009999,0.000000,-0.049999,0.010001,0.030001,-0.009999,-0.009999,-0.069999,0.010001,0.010001,0.010001,-0.069999,0.050001,0.050001,-0.029999
0.030001,0.030001,0.030001,-0.009999,-0.009999,0.070001,0.030001,-0.029999,-0.009999,-0.009999,-0.009999,0.010001,-0.009999,0.030001,0.030001,-0.009999,0.010001,0.030001,0.010001,0.050001,-0.009999,0.010001,-0.009999,0.050001,0.030001,0.010001,0.000000,-0.009999,0.030001,0.030001,0.030001,-0.009999,-0.009999,-0.009999,0.010001,-0.029999,0.030001,0.000000,-0.029999,-0.069999,-0.009999,-0.029999,0.010001,-0.009999,0.030001,0.030001,0.010001,-0.009999,-0.029999,0.010001,0.070001,-0.029999,-0.009999,0.010001,0.030001,0.010001,-0.009999,-0.009999,0.000000,0.010001,-0.049999,0.000000,0.030001,0.010001,-0.009999,-0.049999,0.050001,0.000000,0.030001,0.030001,-0.029999,0.010001,0.050001,0.030001,-0.009999,-0.029999,0.010001,-0.049999,-0.009999,0.010001,0.030001,-0.029999,-0.069999,-0.029999,0.050001,-0.029999,0.030001,-0.069999,0.070001,0.010001,-0.029999,0.050001,-0.009999,-0.049999,0.030001,0.030001,-0.009999,-0.009999,0.030001,0.000000
0.030001,-0.009999,0.070001,0.030001,0.070001,-0.009999,0.000000,0.000000,-0.009999,0.070001,0.030001,0.090001,-0.009999,0.070001,0.070001,0.030001,0.050001,0.070001,0.010001,0.010001,0.030001,0.010001,0.030001,0.050001,0.000000,0.010001,0.050001,0.070001,-0.049999,0.070001,0.000000,-0.009999,-0.009999,-0.049999,0.010001,0.010001,0.030001,-0.029999,0.000000,0.000000,-0.009999,0.090001,-0.029999,-0.009999,-0.049999,0.030001,0.000000,0.070001,0.050001,0.090001,-0.049999,0.010001,0.030001,-0.029999,0.000000,-0.029999,-0.009999,0.030001,0.010001,0.010001,0.030001,0.030001,-0.009999,-0.069999,-0.009999,0.000000,0.000000,-0.029999,0.000000,-0.009999,0.010001,0.010001,-0.029999,0.030001,-0.049999,0.010001,0.050001,0.110001,0.030001,0.010001,-0.009999,0.010001,-0.029999,0.010001,0.010001,0.000000,0.030001,0.050001,-0.009999,0.050001,0.010001,-0.029999,0.030001,0.000000,-0.009999,-0.009999,-0.009999,0.030001,0.000000,-0.049999
-0.049999,-0.009999,-0.009999,-0.049999,0.000000,-0.009999,0.030001,-0.029999,-0.009999,0.030001,0.000000,0.000000,0.000000,-0.009999,0.030001,0.030001,0.000000,-0.009999,-0.029999,0.000000,-0.009999,-0.029999,0.030001,0.000000,-0.009999,-0.029999,0.010001,0.030001,-0.049999,-0.009999,-0.009999,-0.009999,-0.009999,-0.049999,0.050001,-0.029999,0.030001,-0.069999,0.050001,0.000000,-0.049999,0.050001,0.010001,0.000000,-0.009999,-0.009999,-0.029999,-0.009999,-0.029999,0.050001,-0.009999,0.010001,-0.009999,-0.029999,-0.009999,-0.029999,-0.009999,0.000000,0.010001,0.010001,0.030001,-0.049999,-0.009999,-0.069999,0.030001,-0.009999,0.000000,0.010001,-0.009999,-0.089999,0.010001,-0.029999,0.010001,0.030001,0.000000,0.050001,0.010001,0.070001,-0.009999,0.010001,-0.009999,0.050001,0.010001,0.010001,-0.029999,-0.029999,-0.009999,0.050001,-0.049999,0.010001,0.010001,-0.029999,-0.009999,-0.009999,-0.009999,-0.009999,-0.009999,0.070001,-0.009999,-0.009999
0.010001,0.050001,0.050001,0.010001,0.010001,0.010001,0.000000,0.030001,0.010001,0.050001,0.010001,0.030001,0.010001,0.010001,-0.029999,0.000000,-0.049999,-0.069999,-0.009999,-0.009999,0.050001,0.070001,0.010001,-0.009999,0.050001,0.070001,0.070001,0.010001,0.050001,0.050001,0.010001,-0.029999,-0.029999,0.050001,-0.049999,0.030001,-0.029999,-0.009999,-0.009999,-0.049999,0.000000,-0.009999,-0.009999,0.050001,0.050001,0.050001,0.030001,0.050001,0.070001,-0.009999,0.000000,-0.009999,0.010001,0.030001,-0.029999,0.030001,0.010001,0.010001,-0.009999,0.030001,0.010001,0.010001,0.090001,-0.009999,0.050001,0.050001,0.070001,0.000000,0.050001,0.050001,-0.009999,0.030001,0.030001,-0.029999,0.050001,-0.049999,0.030001,0.010001,0.050001,-0.009999,-0.029999,-0.009999,0.070001,0.070001,-0.009999,-0.009999,0.090001,0.030001,-0.029999,0.070001,0.070001,-0.009999,0.050001,0.010001,0.000000,0.000000,0.050001,-0.069999,0.000000,-0.029999
0.030001,-0.009999,0.070001,-0.009999,0.030001,0.030001,0.030001,0.050001,0.030001,0.030001,0.070001,0.000000,-0.009999,0.030001,0.000000,-0.009999,0.050001,0.030001,0.010001,0.050001,0.030001,0.010001,0.030001,0.010001,0.070001,0.010001,0.010001,0.070001,-0.009999,0.070001,-0.009999,0.030001,0.030001,-0.009999,-0.029999,0.010001,0.000000,-0.029999,0.090001,0.050001,-0.009999,0.000000,-0.069999,0.000000,-0.009999,0.070001,0.010001,0.030001,0.050001,0.050001,-0.009999,0.010001,0.030001,-0.029999,-0.089999,0.010001,0.030001,-0.009999,0.050001,-0.029999,0.070001,0.030001,-0.009999,-0.029999,0.000000,-0.009999,0.010001,0.010001,-0.009999,-0.009999,0.050001,0.010001,0.010001,-0.009999,-0.049999,0.010001,0.050001,0.070001,0.000000,0.010001,0.030001,0.050001,0.010001,0.010001,0.010001,0.010001,0.030001,0.010001,-0.009999,0.010001,0.050001,-0.029999,0.030001,-0.009999,0.030001,-0.049999,-0.009999,0.030001,-0.049999,-0.049999
0.030001,-0.049999,-0.049999,-0.009999,0.000000,-0.009999,-0.049999,-0.069999,-0.049999,-0.009999,-0.049999,-0.029999,0.030001,-0.009999,-0.009999,0.030001,-0.029999,-0.009999,-0.069999,-0.069999,0.030001,0.010001,-0.009999,0.010001,-0.049999,0.050001,0.000000,-0.049999,-0.009999,-0.049999,0.000000,-0.049999,-0.089999,-0.009999,0.050001,-0.029999,-0.049999,0.000000,0.000000,0.010001,-0.009999,-0.069999,0.000000,0.030001,0.030001,-0.049999,0.050001,-0.049999,-0.029999,0.000000,-0.009999,-0.029999,-0.009999,0.010001,0.030001,-0.029999,-0.009999,0.030001,-0.029999,0.010001,-0.049999,-0.049999,0.030001,-0.029999,0.070001,0.000000,0.010001,-0.029999,-0.049999,-0.009999,-0.069999,0.010001,0.010001,0.030001,-0.009999,-0.029999,0.010001,-0.009999,-0.049999,-0.029999,-0.089999,-0.029999,-0.029999,0.010001,0.010001,0.010001,-0.009999,0.050001,0.000000,0.010001,0.010001,0.010001,0.030001,-0.009999,-0.009999,0.000000,-0.009999,0.030001,0.030001,0.070001
0.050001,0.050001,0.010001,0.010001,-0.029999,-0.029999,-0.029999,-0.009999,0.050001,-0.029999,0.010001,-0.009999,0.050001,-0.029999,0.010001,0.000000,-0.009999,-0.029999,-0.009999,-0.049999,0.010001,-0.009999,-0.069999,-0.049999,-0.029999,0.030001,-0.009999,0.000000,0.000000,-0.029999,-0.029999,0.010001,-0.069999,0.050001,-0.049999,-0.009999,-0.029999,-0.009999,-0.009999,-0.009999,0.000000,-0.009999,0.030001,0.000000,0.010001,-0.029999,0.030001,-0.029999,0.070001,0.030001,-0.029999,0.000000,-0.029999,-0.009999,-0.029999,0.000000,0.010001,-0.029999,0.030001,0.030001,0.050001,0.010001,0.050001,-0.009999,0.050001,0.010001,0.030001,-0.089999,0.010001,0.010001,-0.009999,-0.009999,0.030001,-0.029999,0.050001,0.000000,0.030001,0.000000,-0.029999,-0.049999,0.000000,-0.009999,0.030001,0.030001,-0.009999,0.030001,0.010001,-0.009999,0.050001,-0.009999,0.030001,0.030001,0.000000,-0.029999,-0.029999,0.050001,-0.029999,-0.029999,-0.029999,0.010001
0.000000,0.010001,0.010001,-0.069999,0.010001,0.090001,0.010001,0.030001,0.010001,0.010001,0.050001,-0.009999,0.050001,0.000000,0.000000,-0.029999,-0.009999,-0.069999,-0.049999,0.030001,0.010001,0.030001,0.010001,-0.009999,0.010001,0.000000,0.030001,-0.029999,0.050001,0.010001,0.050001,0.000000,-0.029999,0.000000,-0.009999,-0.009999,0.010001,0.000000,-0.049999,-0.009999,0.050001,-0.009999,0.000000,0.010001,0.000000,0.050001,0.000000,-0.029999,-0.009999,-0.009999,0.090001,-0.009999,-0.029999,0.070001,-0.029999,0.030001,0.010001,-0.029999,0.030001,0.030001,0.010001,-0.029999,0.090001,-0.009999,0.050001,-0.029999,0.030001,0.030001,0.050001,0.010001,-0.049999,0.030001,0.070001,0.010001,0.010001,-0.009999,-0.009999,-0.029999,-0.029999,-0.009999,0.010001,-0.009999,0.030001,0.030001,-0.009999,0.000000,0.050001,-0.009999,-0.029999,0.030001,0.070001,-0.049999,0.050001,-0.029999,-0.029999,0.050001,0.010001,0.010001,0.090001,0.010001
0.010001,0.000000,0.090001,-0.029999,0.010001,0.090001,0.050001,0.000000,0.010001,0.050001,0.050001,0.070001,0.010001,0.050001,0.010001,0.010001,0.030001,-0.029999,0.030001,0.070001,0.050001,0.000000,0.090001,0.030001,0.090001,0.030001,0.070001,0.050001,0.050001,0.090001,0.050001,0.010001,0.010001,0.010001,-0.049999,0.000000,0.050001,0.030001,0.030001,-0.009999,0.050001,0.070001,-0.049999,-0.029999,0.050001,0.000000,0.030001,0.050001,0.030001,0.030001,0.050001,0.030001,0.010001,0.030001,-0.069999,0.070001,0.050001,0.010001,0.070001,-0.009999,0.010001,0.010001,0.050001,-0.009999,0.000000,-0.029999,0.070001,0.030001,0.050001,0.000000,0.030001,0.030001,0.000000,0.010001,-0.029999,-0.009999,0.030001,0.010001,0.050001,0.030001,0.010001,0.030001,0.000000,0.030001,0.030001,-0.009999,0.090001,-0.009999,-0.029999,0.070001,0.070001,-0.009999,0.010001,0.010001,0.010001,0.010001,0.010001,0.010001,0.010001,-0.029999
0.070001,-0.049999,0.030001,0.070001,0.030001,-0.009999,-0.049999,-0.029999,-0.009999,0.030001,-0.049999,0.050001,0.030001,0.070001,0.030001,0.030001,0.010001,0.030001,0.010001,-0.029999,0.070001,0.050001,0.030001,0.050001,0.030001,0.050001,0.050001,-0.009999,0.030001,0.030001,0.030001,-0.009999,-0.089999,-0.009999,-0.029999,0.050001,-0.009999,0.010001,0.050001,-0.029999,0.000000,0.010001,0.050001,0.030001,-0.009999,0.030001,0.000000,0.030001,0.050001,0.050001,-0.049999,-0.029999,-0.009999,0.010001,-0.049999,0.010001,0.030001,0.030001,0.000000,0.010001,-0.009999,0.000000,0.030001,-0.029999,0.030001,-0.009999,0.050001,-0.069999,0.000000,0.030001,-0.029999,0.010001,0.000000,-0.009999,-0.049999,-0.069999,0.050001,0.030001,-0.009999,0.010001,-0.089999,-0.029999,-0.029999,0.010001,0.010001,0.050001,0.030001,0.050001,-0.009999,0.050001,0.050001,0.010001,0.030001,0.030001,-0.009999,0.070001,-0.049999,-0.009999,-0.009999,0.030001
-0.029999,0.010001,0.000000,0.050001,0.050001,0.010001,-0.029999,0.000000,-0.029999,0.090001,0.000000,0.070001,-0.029999,0.090001,0.050001,0.010001,0.030001,0.010001,0.030001,-0.009999,0.010001,0.030001,0.050001,0.070001,0.090001,0.000000,0.070001,0.050001,0.010001,0.090001,0.010001,-0.029999,0.010001,-0.029999,-0.009999,0.000000,0.010001,-0.009999,0.070001,-0.009999,0.050001,0.030001,-0.049999,-0.029999,-0.029999,0.050001,0.030001,0.000000,0.030001,0.030001,-0.029999,0.070001,0.050001,0.030001,0.010001,-0.009999,-0.029999,0.000000,-0.009999,-0.009999,0.010001,0.010001,0.010001,-0.049999,0.000000,0.050001,0.030001,-0.009999,0.010001,0.010001,-0.009999,-0.009999,-0.009999,0.010001,-0.029999,0.030001,0.030001,0.000000,0.090001,0.030001,0.000000,0.000000,-0.009999,0.000000,0.000000,-0.009999,0.050001,0.030001,-0.029999,0.070001,-0.009999,-0.009999,0.010001,0.010001,-0.069999,0.010001,0.050001,-0.029999,-0.029999,-0.029999
0.000000,0.030001,0.070001,0.030001,0.030001,-0.009999,-0.009999,0.000000,0.070001,-0.009999,-0.009999,0.050001,-0.009999,-0.009999,-0.009999,0.000000,-0.029999,-0.009999,0.010001,0.010001,0.070001,0.000000,-0.009999,0.000000,0.030001,0.050001,0.010001,0.030001,0.030001,0.030001,-0.049999,0.030001,-0.009999,0.030001,-0.069999,0.010001,-0.009999,-0.029999,0.050001,-0.029999,0.070001,0.050001,0.000000,0.070001,-0.009999,0.030001,0.050001,0.000000,0.000000,0.050001,-0.049999,-0.029999,0.030001,0.010001,-0.089999,0.010001,0.030001,0.030001,0.010001,0.010001,0.070001,0.070001,0.030001,0.010001,0.030001,0.030001,0.010001,-0.069999,-0.009999,0.070001,0.050001,0.050001,0.000000,-0.009999,0.030001,-0.029999,0.010001,0.030001,0.030001,-0.069999,-0.009999,-0.029999,0.050001,0.050001,0.010001,0.050001,0.030001,0.010001,0.030001,0.010001,0.050001,0.010001,0.000000,0.030001,-0.009999,-0.009999,-0.009999,-0.009999,-0.049999,-0.009999
0.030001,0.030001,0.070001,0.000000,0.000000,0.000000,0.030001,-0.029999,0.030001,0.030001,0.030001,0.090001,0.030001,0.000000,0.070001,0.030001,0.050001,0.030001,0.010001,0.010001,0.030001,0.000000,0.030001,0.010001,0.000000,0.010001,0.050001,0.030001,-0.009999,0.030001,-0.009999,-0.009999,0.000000,0.000000,0.010001,0.000000,0.070001,0.010001,0.090001,0.050001,-0.009999,0.050001,0.010001,0.030001,-0.009999,0.030001,0.050001,0.030001,0.050001,0.000000,-0.009999,-0.029999,-0.009999,0.010001,-0.049999,-0.029999,-0.009999,0.030001,0.050001,0.050001,0.030001,0.030001,0.030001,-0.069999,0.000000,-0.009999,0.010001,-0.029999,-0.009999,-0.009999,0.010001,0.010001,0.010001,0.070001,-0.009999,0.010001,0.010001,0.070001,-0.009999,-0.029999,-0.009999,-0.029999,0.000000,0.010001,0.010001,0.010001,0.030001,0.010001,0.030001,0.050001,0.010001,0.000000,0.000000,-0.009999,-0.009999,0.030001,-0.049999,0.070001,-0.009999,-0.009999
-0.029999,0.050001,0.010001,-0.069999,-0.029999,0.090001,0.050001,-0.009999,0.010001,0.010001,0.050001,-0.009999,0.010001,-0.029999,-0.029999,-0.029999,-0.009999,-0.029999,-0.009999,0.070001,-0.029999,-0.009999,0.010001,-0.009999,0.010001,0.030001,0.030001,-0.029999,0.010001,0.010001,0.050001,-0.029999,0.010001,0.000000,0.030001,-0.049999,0.050001,0.070001,-0.049999,-0.009999,0.010001,-0.009999,-0.009999,-0.029999,0.090001,0.050001,-0.049999,-0.029999,-0.049999,-0.009999,0.000000,-0.009999,-0.029999,0.030001,0.010001,0.030001,-0.029999,-0.029999,0.030001,0.030001,-0.029999,0.010001,0.050001,-0.009999,0.010001,-0.029999,0.030001,0.070001,0.090001,0.010001,-0.009999,-0.009999,0.000000,0.000000,0.010001,-0.009999,-0.009999,-0.029999,-0.029999,0.000000,0.050001,-0.009999,-0.009999,-0.009999,-0.009999,-0.049999,0.050001,-0.049999,0.010001,0.030001,0.030001,-0.009999,0.010001,-0.029999,0.010001,0.010001,0.010001,0.010001,0.090001,-0.029999
0.000000,-0.049999,-0.009999,-0.009999,0.030001,0.000000,-0.009999,0.050001,-0.049999,0.030001,0.000000,0.010001,-0.049999,0.030001,-0.009999,-0.009999,0.010001,-0.009999,0.010001,0.000000,-0.009999,0.010001,0.000000,0.050001,0.030001,-0.029999,0.010001,0.030001,-0.009999,0.030001,0.030001,-0.009999,0.070001,-0.009999,0.010001,0.000000,-0.009999,-0.029999,0.010001,0.010001,-0.009999,0.000000,-0.029999,-0.089999,-0.009999,0.030001,-0.029999,0.070001,-0.029999,-0.029999,-0.009999,0.000000,0.070001,0.050001,0.000000,0.010001,-0.009999,0.070001,0.000000,-0.069999,0.000000,-0.009999,-0.049999,0.000000,-0.049999,-0.009999,-0.029999,0.050001,-0.009999,-0.009999,0.010001,0.010001,-0.029999,0.030001,0.000000,0.000000,0.000000,-0.009999,0.070001,0.010001,0.030001,0.010001,0.010001,-0.029999,0.010001,0.010001,-0.009999,0.010001,-0.049999,0.010001,-0.029999,-0.029999,-0.009999,0.030001,0.000000,-0.049999,0.070001,0.030001,-0.009999,0.030001
0.010001,-0.029999,0.010001,0.010001,0.010001,0.010001,-0.029999,0.000000,-0.029999,0.010001,-0.029999,-0.009999,-0.109999,0.010001,-0.029999,-0.029999,0.000000,0.010001,-0.049999,-0.009999,0.050001,0.030001,0.010001,0.000000,0.050001,0.000000,-0.009999,0.050001,-0.029999,0.050001,-0.029999,0.010001,0.050001,-0.029999,0.030001,-0.009999,-0.069999,-0.009999,0.030001,-0.009999,0.010001,0.030001,-0.009999,0.000000,0.000000,0.010001,-0.009999,0.050001,0.030001,-0.009999,-0.029999,0.070001,0.000000,-0.009999,0.010001,-0.009999,-0.029999,0.090001,-0.049999,-0.089999,0.010001,0.050001,-0.029999,-0.009999,0.010001,-0.029999,-0.009999,0.030001,-0.029999,0.050001,0.030001,0.030001,-0.049999,0.010001,-0.029999,0.000000,0.000000,0.010001,0.090001,-0.049999,0.010001,-0.009999,-0.009999,-0.009999,0.030001,-0.009999,0.010001,0.030001,0.010001,-0.009999,-0.009999,0.030001,0.050001,0.000000,0.010001,0.000000,0.090001,0.010001,-0.069999,0.010001
-0.009999,-0.009999,-0.009999,-0.009999,0.030001,0.070001,-0.009999,0.050001,0.030001,-0.009999,-0.009999,0.010001,0.000000,-0.009999,-0.009999,-0.049999,0.010001,-0.049999,0.010001,0.010001,-0.009999,0.010001,0.030001,0.010001,-0.009999,0.010001,0.010001,-0.049999,0.070001,-0.009999,0.030001,-0.049999,-0.009999,0.030001,0.000000,0.050001,0.030001,0.010001,-0.029999,-0.029999,0.030001,-0.029999,0.010001,-0.009999,0.070001,0.030001,0.010001,0.000000,0.010001,0.010001,0.030001,0.050001,-0.009999,0.000000,-0.009999,0.010001,-0.009999,0.030001,0.010001,0.010001,0.030001,-0.009999,0.030001,0.010001,-0.009999,-0.009999,-0.029999,0.010001,0.030001,0.030001,0.000000,0.010001,0.010001,0.030001,-0.009999,0.050001,-0.069999,-0.049999,-0.009999,0.000000,0.030001,-0.069999,0.010001,-0.029999,-0.029999,0.050001,0.000000,-0.029999,-0.009999,0.010001,0.010001,-0.029999,-0.009999,0.030001,-0.049999,0.030001,-0.009999,0.030001,0.070001,0.070001
-0.069999,0.010001,-0.069999,0.010001,-0.029999,-0.029999,-0.029999,-0.049999,-0.069999,0.010001,-0.029999,-0.049999,-0.029999,0.010001,0.010001,0.010001,-0.009999,0.010001,-0.009999,-0.049999,-0.069999,-0.049999,0.000000,0.030001,-0.029999,-0.049999,-0.009999,0.000000,-0.029999,-0.029999,0.000000,0.000000,0.010001,-0.029999,0.070001,-0.009999,-0.029999,0.030001,-0.049999,-0.009999,-0.029999,-0.089999,0.030001,-0.029999,-0.029999,-0.069999,0.000000,0.010001,-0.089999,-0.049999,0.010001,0.030001,0.010001,0.000000,0.000000,0.000000,-0.069999,0.010001,-0.049999,-0.009999,-0.069999,-0.029999,-0.029999,-0.009999,-0.029999,0.010001,-0.009999,0.000000,0.000000,-0.029999,-0.049999,-0.049999,-0.009999,0.010001,0.010001,0.000000,-0.009999,-0.029999,0.010001,0.030001,0.010001,-0.009999,-0.049999,-0.049999,-0.009999,0.000000,-0.029999,-0.009999,0.010001,-0.009999,-0.089999,0.000000,-0.029999,-0.029999,-0.029999,0.010001,0.050001,-0.029999,0.010001,0.010001
-0.009999,-0.009999,0.030001,-0.009999,-0.009999,0.030001,0.070001,0.010001,0.030001,-0.009999,-0.009999,0.010001,-0.009999,-0.009999,-0.049999,0.000000,0.000000,0.000000,0.010001,0.050001,0.000000,0.090001,0.070001,-0.029999,0.030001,0.010001,0.010001,0.030001,0.030001,0.030001,-0.009999,0.030001,0.030001,-0.009999,-0.029999,0.010001,0.030001,0.010001,-0.029999,-0.029999,0.030001,0.010001,0.000000,-0.049999,0.030001,0.000000,0.000000,-0.009999,0.010001,-0.029999,0.030001,0.010001,0.000000,0.010001,-0.049999,0.000000,0.070001,-0.009999,0.010001,0.010001,-0.009999,-0.009999,0.000000,0.050001,0.000000,-0.009999,0.010001,0.000000,0.030001,0.030001,0.000000,0.050001,0.000000,-0.009999,0.030001,-0.029999,-0.029999,-0.049999,0.030001,0.010001,-0.009999,0.010001,0.050001,0.050001,0.010001,-0.029999,0.030001,0.010001,0.000000,0.010001,0.050001,0.010001,0.000000,0.070001,0.000000,-0.009999,0.000000,-0.009999,0.030001,-0.009999
0.050001,-0.029999,0.050001,-0.029999,0.010001,0.010001,0.050001,0.030001,0.010001,-0.029999,0.010001,0.030001,0.050001,0.010001,0.010001,0.050001,0.030001,-0.029999,0.030001,0.030001,0.050001,0.070001,0.050001,-0.009999,0.010001,-0.009999,-0.009999,0.050001,0.050001,0.000000,0.010001,0.050001,0.000000,0.050001,-0.089999,0.030001,0.010001,0.000000,-0.009999,-0.009999,0.010001,0.030001,-0.009999,0.010001,0.010001,0.050001,0.030001,-0.029999,0.000000,0.000000,-0.029999,-0.009999,-0.029999,-0.009999,-0.069999,0.000000,0.000000,0.000000,0.070001,-0.009999,0.010001,-0.029999,0.010001,0.070001,0.010001,-0.029999,0.030001,-0.009999,-0.029999,0.000000,0.030001,0.000000,0.030001,0.010001,0.000000,-0.009999,-0.009999,-0.029999,0.010001,-0.009999,-0.029999,0.070001,0.070001,0.070001,0.070001,0.030001,0.010001,-0.009999,-0.029999,-0.009999,0.030001,-0.009999,-0.029999,0.010001,0.050001,0.010001,-0.029999,0.010001,-0.029999,0.010001
0.010001,-0.029999,0.010001,0.010001,0.010001,0.010001,-0.029999,-0.009999,-0.029999,0.010001,-0.069999,0.030001,-0.069999,0.010001,-0.029999,0.010001,-0.049999,0.010001,-0.009999,-0.009999,0.050001,0.030001,0.050001,0.030001,0.010001,0.030001,0.030001,0.010001,-0.029999,0.010001,0.010001,0.010001,0.010001,-0.029999,0.030001,-0.009999,-0.029999,-0.009999,0.030001,0.000000,0.010001,-0.009999,0.030001,0.000000,-0.029999,0.010001,0.030001,0.050001,0.030001,0.000000,-0.029999,0.070001,0.090001,0.030001,0.010001,0.000000,-0.029999,0.000000,-0.049999,0.000000,-0.029999,0.050001,-0.029999,-0.009999,0.000000,-0.029999,-0.009999,-0.009999,-0.029999,0.000000,0.030001,0.030001,-0.049999,0.050001,-0.029999,0.030001,0.000000,0.010001,0.050001,-0.049999,-0.029999,0.000000,0.000000,-0.009999,0.030001,0.030001,0.010001,0.030001,0.010001,0.030001,-0.009999,0.030001,0.010001,0.050001,0.010001,-0.029999,0.050001,0.050001,-0.029999,0.050001
0.030001,0.000000,0.070001,-0.049999,-0.009999,0.070001,0.070001,0.010001,0.030001,-0.009999,0.070001,0.050001,0.070001,0.030001,0.000000,0.030001,0.090001,-0.009999,0.050001,0.050001,-0.009999,0.010001,0.030001,0.010001,0.030001,-0.029999,0.010001,0.030001,0.070001,0.030001,0.030001,0.030001,-0.009999,0.030001,-0.069999,0.010001,0.070001,0.050001,0.010001,0.010001,-0.009999,0.050001,-0.029999,0.000000,0.030001,0.070001,0.010001,-0.009999,0.010001,0.050001,0.030001,-0.029999,-0.049999,0.010001,-0.049999,0.010001,0.070001,-0.049999,0.000000,0.010001,0.030001,-0.009999,0.030001,0.010001,-0.009999,-0.049999,0.050001,0.010001,0.030001,-0.049999,0.010001,0.010001,0.090001,0.030001,-0.009999,0.010001,0.010001,-0.009999,-0.009999,0.010001,0.030001,0.050001,0.010001,0.010001,0.050001,0.000000,0.000000,-0.069999,0.030001,0.010001,0.010001,0.010001,-0.049999,0.000000,0.030001,0.030001,0.000000,0.030001,-0.009999,-0.009999
-0.009999,0.000000,0.030001,-0.009999,0.030001,0.000000,0.030001,-0.029999,0.030001,0.030001,0.030001,0.000000,0.070001,-0.009999,0.030001,0.030001,0.010001,-0.009999,0.010001,0.010001,-0.009999,0.010001,-0.009999,0.000000,-0.009999,0.010001,0.050001,-0.009999,-0.009999,-0.009999,-0.009999,-0.049999,-0.049999,-0.009999,0.010001,-0.029999,0.070001,0.010001,0.010001,0.010001,0.030001,-0.029999,0.010001,0.030001,0.000000,-0.009999,0.010001,-0.009999,0.010001,0.050001,0.030001,-0.069999,-0.089999,0.010001,-0.009999,0.010001,-0.009999,-0.049999,0.010001,0.000000,-0.009999,-0.009999,0.070001,0.000000,0.030001,0.070001,0.010001,-0.029999,0.030001,-0.009999,-0.029999,0.010001,0.010001,0.030001,0.000000,-0.029999,-0.029999,0.030001,-0.049999,0.010001,-0.009999,-0.029999,0.010001,0.050001,-0.029999,-0.029999,0.030001,0.010001,0.000000,0.050001,0.010001,-0.029999,-0.009999,-0.009999,-0.049999,0.070001,-0.049999,-0.009999,0.070001,-0.049999
0.010001,0.010001,0.010001,0.010001,0.010001,0.010001,0.010001,0.070001,0.090001,-0.029999,0.050001,0.000000,0.010001,-0.029999,0.010001,-0.069999,0.030001,-0.029999,-0.009999,-0.009999,0.000000,-0.009999,-0.029999,-0.049999,0.010001,0.000000,-0.049999,0.010001,0.050001,0.010001,-0.069999,0.010001,0.010001,0.010001,-0.049999,0.030001,0.000000,-0.049999,0.030001,0.030001,0.010001,0.070001,-0.049999,0.050001,0.010001,0.010001,-0.009999,0.010001,0.000000,0.030001,-0.029999,-0.009999,0.010001,0.030001,-0.069999,0.000000,0.000000,-0.029999,0.030001,-0.009999,0.000000,0.000000,0.010001,0.000000,0.010001,0.010001,-0.049999,-0.009999,0.010001,0.010001,0.030001,-0.009999,-0.009999,-0.029999,0.000000,0.030001,-0.009999,0.010001,0.000000,-0.049999,0.050001,-0.009999,0.030001,-0.009999,-0.049999,0.030001,-0.029999,-0.009999,0.010001,-0.049999,0.030001,-0.009999,0.010001,0.010001,-0.029999,-0.029999,-0.029999,0.010001,-0.029999,0.010001
0.050001,0.000000,0.050001,0.010001,0.000000,0.010001,0.010001,0.030001,0.050001,-0.029999,-0.029999,0.030001,-0.069999,-0.029999,-0.029999,0.000000,-0.049999,0.050001,0.030001,0.000000,0.010001,-0.009999,-0.029999,-0.009999,0.010001,0.030001,-0.009999,0.010001,-0.029999,0.010001,-0.029999,0.000000,0.050001,0.010001,-0.009999,-0.049999,0.010001,0.030001,0.030001,-0.049999,0.010001,0.030001,-0.049999,0.010001,0.000000,0.010001,-0.009999,0.010001,0.070001,0.000000,0.010001,-0.009999,0.050001,-0.009999,-0.029999,-0.009999,0.000000,0.050001,-0.009999,-0.009999,0.010001,0.000000,-0.029999,0.030001,-0.029999,0.010001,-0.009999,0.000000,0.000000,0.090001,0.070001,0.030001,0.000000,0.010001,0.010001,-0.009999,-0.009999,0.010001,0.010001,0.000000,0.050001,-0.049999,-0.009999,-0.009999,0.030001,0.030001,0.010001,-0.049999,0.090001,0.000000,-0.009999,0.030001,0.010001,0.010001,0.050001,-0.069999,0.010001,0.010001,-0.029999,-0.029999
0.010001,0.050001,0.050001,-0.029999,0.010001,0.050001,0.010001,-0.009999,0.010001,0.050001,0.050001,0.030001,0.050001,0.010001,0.010001,0.010001,0.000000,-0.069999,-0.049999,-0.009999,0.000000,0.070001,0.010001,-0.009999,0.050001,0.070001,0.070001,0.010001,0.050001,0.000000,0.000000,-0.069999,-0.069999,0.010001,-0.009999,-0.009999,0.010001,0.030001,-0.009999,-0.009999,0.090001,-0.009999,0.030001,0.050001,0.090001,0.050001,0.030001,0.010001,0.030001,0.030001,0.050001,-0.049999,-0.029999,0.030001,-0.029999,0.030001,0.010001,-0.029999,0.030001,0.070001,0.010001,-0.029999,0.000000,0.000000,0.090001,0.010001,0.070001,-0.009999,0.050001,0.010001,0.000000,0.030001,0.070001,0.010001,0.050001,-0.049999,0.030001,0.000000,0.010001,-0.009999,-0.029999,0.000000,0.030001,0.070001,-0.009999,-0.049999,0.090001,0.030001,-0.029999,0.070001,0.070001,-0.009999,0.050001,-0.029999,-0.069999,0.090001,0.010001,-0.029999,0.050001,-0.029999
0.030001,-0.009999,-0.009999,-0.009999,-0.009999,-0.009999,0.030001,0.050001,0.030001,-0.089999,-0.049999,-0.029999,-0.009999,-0.049999,-0.049999,-0.009999,-0.029999,-0.009999,0.050001,0.050001,0.000000,0.000000,0.000000,-0.029999,-0.049999,-0.029999,-0.069999,0.000000,0.030001,-0.049999,-0.009999,0.070001,0.070001,0.070001,-0.069999,0.010001,-0.009999,0.000000,-0.069999,-0.069999,-0.009999,-0.029999,-0.029999,-0.009999,-0.009999,-0.009999,-0.029999,-0.049999,0.010001,-0.069999,0.000000,0.010001,-0.009999,0.010001,-0.009999,0.050001,0.070001,-0.009999,0.010001,-0.029999,-0.009999,0.030001,-0.049999,0.000000,-0.049999,-0.009999,-0.029999,0.010001,0.000000,0.030001,0.050001,0.050001,-0.029999,-0.009999,0.000000,0.010001,-0.069999,-0.089999,-0.009999,-0.029999,0.030001,0.010001,0.050001,0.000000,0.050001,0.050001,-0.049999,0.000000,0.000000,-0.069999,-0.029999,0.010001,-0.049999,0.030001,0.070001,-0.049999,-0.009999,-0.009999,-0.009999,0.030001
0.010001,0.010001,0.010001,-0.029999,0.000000,0.010001,0.010001,-0.049999,0.010001,0.000000,0.010001,-0.009999,0.010001,-0.029999,0.000000,0.010001,-0.049999,-0.069999,-0.089999,-0.049999,0.000000,0.070001,0.010001,-0.049999,0.010001,0.070001,0.030001,0.010001,0.010001,0.010001,-0.029999,-0.029999,-0.069999,-0.029999,0.030001,-0.049999,-0.029999,-0.009999,-0.009999,0.030001,0.050001,-0.009999,0.070001,0.050001,0.050001,0.010001,0.030001,-0.029999,0.030001,0.030001,0.000000,-0.049999,0.010001,-0.009999,-0.029999,0.030001,0.010001,0.010001,-0.009999,0.030001,0.010001,0.000000,0.090001,-0.049999,0.000000,-0.029999,0.030001,-0.009999,0.010001,0.010001,-0.009999,0.000000,0.030001,0.010001,0.050001,-0.049999,0.030001,0.010001,0.010001,-0.049999,-0.069999,-0.009999,0.030001,0.070001,-0.009999,-0.049999,0.050001,0.070001,-0.029999,0.030001,0.070001,0.030001,0.050001,0.010001,-0.029999,0.050001,0.010001,0.010001,0.000000,0.010001
-0.029999,0.050001,0.010001,0.050001,0.050001,-0.069999,0.000000,0.030001,0.010001,0.050001,0.010001,0.030001,0.010001,0.010001,0.010001,0.010001,-0.009999,0.010001,0.030001,-0.009999,-0.029999,-0.009999,-0.029999,-0.009999,0.010001,-0.009999,0.030001,0.000000,-0.029999,0.010001,-0.029999,-0.029999,0.010001,0.010001,-0.009999,0.030001,0.010001,-0.049999,0.030001,0.000000,0.050001,-0.009999,0.000000,0.010001,-0.029999,-0.029999,-0.009999,0.050001,0.030001,-0.009999,-0.029999,-0.009999,-0.029999,-0.009999,0.010001,-0.009999,-0.029999,0.000000,0.000000,0.070001,0.010001,0.010001,0.010001,-0.009999,-0.029999,0.000000,-0.009999,-0.049999,0.010001,0.010001,0.000000,-0.009999,-0.049999,-0.029999,0.050001,-0.009999,-0.009999,0.000000,0.010001,0.030001,0.010001,-0.009999,0.030001,0.000000,-0.049999,-0.009999,0.010001,0.030001,-0.029999,0.030001,-0.009999,-0.049999,0.010001,0.010001,-0.069999,0.010001,0.010001,-0.069999,0.010001,0.000000
0.000000,0.030001,0.070001,-0.009999,0.000000,0.030001,-0.009999,0.000000,0.000000,0.070001,0.030001,0.050001,0.030001,0.070001,0.000000,0.070001,0.010001,-0.009999,0.010001,0.010001,0.030001,0.050001,0.030001,0.050001,0.070001,0.050001,0.090001,0.030001,0.030001,0.070001,0.070001,-0.009999,-0.049999,0.030001,-0.029999,0.010001,-0.009999,0.050001,0.010001,-0.029999,0.070001,0.010001,0.010001,0.030001,0.030001,0.070001,0.050001,0.030001,0.010001,0.010001,0.030001,-0.029999,-0.009999,-0.029999,-0.009999,0.010001,0.030001,-0.009999,0.050001,0.010001,-0.049999,-0.009999,0.070001,-0.029999,0.030001,-0.009999,0.000000,0.000000,0.030001,-0.009999,-0.029999,0.010001,0.000000,-0.009999,-0.009999,-0.069999,0.090001,0.000000,0.030001,0.050001,0.000000,0.050001,0.010001,0.000000,0.050001,-0.029999,0.110001,0.010001,-0.009999,0.090001,0.050001,0.010001,0.000000,-0.049999,-0.009999,0.070001,0.030001,-0.049999,-0.009999,-0.049999
-0.049999,-0.009999,-0.009999,-0.049999,-0.009999,0.000000,0.070001,0.010001,-0.009999,0.000000,0.030001,-0.029999,-0.049999,-0.009999,-0.009999,-0.049999,0.010001,-0.009999,-0.029999,0.050001,-0.009999,0.010001,0.030001,0.010001,0.030001,0.000000,-0.029999,0.030001,-0.009999,0.030001,-0.009999,-0.009999,0.070001,-0.049999,0.050001,0.000000,0.030001,0.050001,-0.029999,0.010001,-0.049999,0.010001,-0.029999,-0.089999,0.030001,0.030001,-0.069999,-0.009999,-0.069999,-0.029999,0.070001,0.050001,0.030001,0.010001,0.030001,0.050001,-0.009999,-0.009999,0.010001,-0.029999,-0.009999,-0.009999,-0.009999,0.000000,-0.009999,-0.049999,-0.029999,0.000000,0.030001,0.000000,0.000000,0.010001,0.010001,0.030001,-0.009999,0.050001,-0.029999,-0.049999,0.000000,0.010001,0.070001,0.010001,-0.029999,-0.029999,0.010001,-0.069999,-0.009999,-0.029999,-0.009999,-0.029999,-0.029999,0.010001,-0.009999,-0.009999,0.000000,-0.049999,0.030001,0.030001,0.030001,-0.009999
-0.069999,0.090001,0.000000,0.000000,-0.069999,0.050001,0.050001,-0.009999,0.050001,0.010001,0.050001,-0.009999,0.010001,-0.029999,-0.029999,-0.029999,-0.009999,-0.069999,0.030001,0.030001,-0.029999,-0.009999,0.010001,-0.049999,0.010001,-0.009999,0.000000,-0.029999,0.050001,0.010001,0.000000,0.010001,0.010001,0.010001,-0.009999,-0.009999,0.050001,0.030001,-0.049999,-0.009999,0.050001,-0.009999,-0.049999,0.010001,0.050001,0.050001,-0.049999,0.010001,-0.009999,-0.009999,0.090001,-0.009999,0.000000,0.000000,0.010001,0.000000,-0.029999,-0.029999,0.030001,0.030001,0.000000,0.010001,0.050001,-0.009999,0.010001,0.010001,0.030001,0.030001,0.000000,0.010001,0.030001,-0.049999,0.070001,-0.029999,0.050001,0.000000,-0.009999,0.000000,0.010001,0.030001,0.050001,-0.009999,0.030001,0.000000,-0.049999,-0.049999,0.050001,-0.049999,0.010001,0.000000,0.030001,0.030001,-0.029999,0.010001,-0.029999,0.010001,0.010001,-0.029999,0.050001,-0.029999
0.000000,0.010001,0.000000,0.050001,0.010001,0.010001,-0.029999,0.030001,0.050001,-0.029999,-0.069999,-0.009999,-0.069999,-0.029999,-0.069999,0.000000,-0.089999,0.010001,-0.009999,0.030001,0.050001,0.030001,-0.029999,-0.009999,0.010001,0.070001,-0.009999,-0.029999,0.000000,0.010001,0.000000,0.010001,0.010001,0.010001,-0.009999,0.000000,-0.029999,0.030001,-0.009999,-0.089999,0.050001,-0.009999,-0.009999,0.010001,0.010001,0.010001,0.030001,0.010001,0.070001,-0.009999,0.010001,-0.009999,0.050001,0.030001,-0.029999,0.030001,-0.029999,0.050001,-0.049999,-0.009999,0.010001,0.000000,0.010001,0.030001,0.010001,0.010001,-0.009999,-0.009999,0.010001,0.000000,0.030001,0.030001,-0.049999,-0.029999,0.010001,-0.049999,-0.009999,0.000000,0.010001,-0.049999,0.010001,-0.089999,-0.009999,-0.009999,-0.009999,0.030001,0.010001,-0.009999,0.050001,-0.009999,0.030001,0.030001,0.050001,0.050001,0.000000,-0.029999,0.010001,-0.029999,0.000000,0.010001
-0.009999,0.030001,0.030001,-0.009999,-0.049999,-0.009999,0.070001,0.010001,0.070001,-0.049999,-0.009999,0.010001,-0.049999,-0.049999,-0.049999,-0.009999,-0.029999,-0.009999,0.050001,0.050001,0.030001,0.010001,0.030001,0.000000,-0.009999,-0.029999,-0.029999,0.030001,-0.009999,-0.009999,-0.049999,0.110001,0.070001,-0.009999,-0.029999,-0.029999,0.030001,-0.029999,0.010001,0.010001,-0.009999,0.050001,-0.069999,0.000000,-0.049999,0.030001,-0.029999,-0.009999,0.050001,0.010001,-0.009999,0.010001,0.030001,-0.029999,-0.049999,0.050001,0.030001,0.030001,0.000000,-0.029999,0.030001,0.070001,-0.049999,0.050001,0.000000,-0.009999,0.000000,0.010001,0.030001,0.030001,0.000000,0.000000,-0.029999,-0.009999,0.030001,0.010001,-0.029999,-0.009999,0.030001,-0.029999,0.030001,0.010001,0.050001,0.000000,0.000000,0.010001,-0.009999,0.000000,0.030001,-0.029999,0.010001,0.050001,-0.049999,0.070001,0.070001,-0.089999,-0.009999,0.030001,-0.049999,-0.009999
0.070001,-0.009999,0.070001,-0.049999,0.070001,0.030001,0.030001,0.050001,-0.009999,-0.009999,-0.009999,0.050001,-0.009999,-0.009999,-0.009999,0.030001,0.000000,-0.009999,-0.029999,0.050001,0.070001,0.090001,0.030001,0.010001,0.030001,0.050001,0.010001,0.070001,-0.009999,0.030001,0.000000,-0.009999,0.030001,0.000000,-0.029999,-0.029999,-0.009999,0.010001,0.010001,-0.029999,0.030001,0.010001,0.010001,-0.009999,0.030001,0.030001,0.000000,0.000000,0.050001,0.010001,-0.009999,0.010001,0.030001,0.010001,-0.049999,0.050001,0.070001,0.030001,0.010001,0.010001,0.000000,0.030001,0.030001,0.050001,0.030001,-0.009999,0.010001,0.000000,-0.049999,0.030001,0.010001,0.000000,-0.029999,0.070001,0.030001,0.010001,-0.029999,-0.009999,0.030001,-0.069999,-0.009999,0.010001,0.000000,0.000000,0.090001,0.010001,0.030001,0.010001,-0.009999,0.010001,0.010001,-0.029999,0.000000,-0.009999,0.030001,-0.009999,0.030001,0.030001,-0.009999,-0.009999
-0.009999,0.030001,0.030001,-0.049999,-0.049999,0.070001,0.030001,-0.029999,-0.009999,0.030001,0.070001,0.010001,0.070001,0.030001,0.030001,0.030001,0.050001,-0.049999,0.010001,0.010001,-0.009999,0.010001,0.030001,0.010001,0.030001,0.010001,0.050001,-0.009999,0.070001,0.030001,0.070001,-0.009999,-0.049999,0.030001,-0.029999,0.010001,0.030001,0.050001,-0.029999,0.010001,0.030001,0.010001,0.010001,0.030001,0.070001,0.070001,0.010001,-0.009999,-0.029999,0.010001,0.070001,-0.029999,-0.049999,0.000000,-0.009999,0.010001,0.030001,-0.049999,0.000000,0.010001,-0.009999,-0.049999,0.070001,-0.029999,0.030001,-0.049999,0.090001,0.010001,0.070001,0.000000,-0.029999,0.000000,0.000000,-0.009999,-0.009999,0.000000,0.050001,-0.009999,0.000000,0.050001,-0.009999,0.050001,0.000000,0.010001,0.000000,-0.029999,0.070001,-0.029999,0.000000,0.050001,0.050001,0.010001,-0.009999,-0.049999,-0.009999,0.070001,-0.009999,-0.009999,0.030001,-0.009999
0.000000,0.010001,0.050001,-0.069999,0.050001,0.050001,0.050001,-0.009999,-0.029999,0.010001,0.010001,0.070001,0.010001,0.010001,0.050001,0.050001,0.030001,0.010001,-0.009999,0.030001,0.010001,0.030001,0.050001,0.030001,0.010001,-0.009999,0.030001,0.050001,-0.029999,0.010001,0.010001,-0.029999,0.010001,-0.029999,0.030001,0.000000,0.050001,0.030001,0.030001,0.030001,0.000000,-0.009999,0.030001,0.000000,0.010001,0.010001,-0.009999,0.010001,-0.009999,0.070001,0.010001,0.030001,0.010001,0.030001,0.010001,-0.009999,0.010001,0.050001,0.030001,0.030001,-0.029999,0.010001,0.010001,-0.009999,0.010001,-0.029999,-0.009999,0.030001,-0.029999,-0.029999,-0.009999,0.000000,-0.009999,0.000000,0.010001,0.070001,-0.049999,0.010001,0.000000,0.000000,0.010001,-0.009999,-0.009999,0.030001,0.070001,-0.009999,0.010001,-0.009999,0.010001,0.030001,0.000000,-0.009999,-0.029999,-0.029999,0.010001,0.010001,0.010001,0.090001,0.010001,0.010001
-0.029999,0.090001,0.010001,-0.029999,-0.029999,-0.029999,0.050001,-0.009999,0.050001,-0.029999,0.010001,0.000000,0.010001,-0.069999,-0.029999,0.010001,-0.049999,-0.069999,-0.009999,-0.009999,0.010001,0.030001,-0.029999,-0.089999,-0.029999,-0.009999,-0.009999,0.010001,0.010001,-0.029999,-0.069999,0.010001,0.010001,0.010001,-0.009999,-0.049999,0.010001,-0.009999,-0.049999,-0.009999,0.000000,-0.049999,0.000000,0.050001,0.010001,-0.029999,-0.049999,-0.029999,0.030001,-0.009999,0.010001,-0.049999,-0.029999,-0.009999,0.010001,0.030001,0.010001,-0.029999,-0.009999,0.070001,0.000000,0.010001,0.050001,0.030001,0.050001,0.050001,-0.009999,-0.009999,0.050001,0.010001,0.030001,0.030001,-0.009999,0.010001,0.000000,-0.009999,0.000000,-0.029999,0.010001,-0.049999,0.010001,-0.009999,0.000000,0.070001,-0.009999,-0.049999,0.010001,-0.009999,0.010001,-0.009999,-0.009999,0.030001,-0.029999,0.010001,-0.029999,0.010001,0.010001,0.000000,0.010001,0.000000
-0.049999,-0.009999,-0.009999,-0.049999,0.030001,0.030001,0.030001,0.050001,-0.009999,-0.009999,0.030001,0.010001,-0.009999,-0.009999,0.030001,-0.009999,0.050001,-0.009999,0.010001,0.010001,-0.049999,-0.029999,0.030001,0.010001,-0.009999,-0.069999,-0.029999,0.030001,-0.009999,-0.009999,-0.009999,-0.009999,0.070001,-0.009999,0.010001,0.010001,0.000000,-0.029999,0.010001,0.050001,-0.049999,0.010001,-0.029999,0.000000,-0.009999,0.000000,-0.069999,0.030001,-0.029999,0.010001,0.000000,0.090001,0.030001,0.050001,0.030001,-0.029999,-0.009999,0.030001,0.010001,-0.029999,0.030001,-0.009999,-0.049999,0.010001,-0.049999,-0.009999,-0.069999,0.050001,-0.009999,-0.049999,0.010001,0.010001,-0.029999,0.070001,-0.009999,0.000000,-0.069999,-0.009999,0.030001,-0.029999,0.070001,0.010001,0.010001,-0.029999,0.010001,0.010001,-0.049999,-0.029999,0.000000,-0.029999,-0.069999,-0.029999,-0.049999,-0.009999,-0.009999,0.000000,0.030001,0.070001,-0.009999,0.030001
0.030001,-0.009999,0.030001,0.030001,0.000000,0.000000,-0.049999,-0.029999,0.000000,0.070001,0.030001,0.010001,-0.009999,0.000000,0.030001,0.030001,0.010001,0.030001,-0.029999,-0.029999,0.030001,0.010001,0.000000,0.050001,0.070001,0.000000,0.050001,0.030001,-0.009999,0.070001,0.000000,-0.009999,-0.049999,-0.009999,0.010001,0.010001,-0.049999,0.010001,0.050001,0.000000,0.030001,0.050001,0.000000,0.030001,-0.009999,0.030001,0.050001,0.030001,0.010001,0.010001,0.000000,-0.029999,0.030001,-0.069999,-0.009999,0.000000,-0.009999,0.000000,0.010001,0.000000,-0.009999,-0.009999,0.030001,-0.069999,0.030001,-0.009999,0.090001,-0.029999,0.000000,-0.009999,0.000000,-0.029999,0.050001,-0.049999,-0.049999,-0.069999,0.000000,0.070001,0.030001,0.050001,-0.049999,0.050001,-0.029999,0.010001,0.010001,-0.029999,0.070001,0.000000,-0.009999,0.050001,0.000000,0.010001,0.070001,-0.049999,-0.009999,0.030001,0.030001,-0.049999,-0.049999,-0.049999
0.010001,0.010001,0.050001,0.010001,0.000000,-0.029999,-0.029999,-0.009999,-0.029999,0.090001,0.050001,0.070001,0.010001,0.050001,0.050001,0.050001,0.030001,0.050001,-0.009999,-0.009999,0.010001,-0.009999,0.010001,0.030001,0.050001,0.030001,0.070001,0.050001,-0.069999,0.050001,0.010001,-0.029999,-0.029999,-0.029999,0.000000,-0.009999,0.010001,-0.049999,0.110001,0.070001,0.010001,0.070001,-0.009999,0.010001,-0.029999,0.000000,0.030001,0.000000,0.030001,0.070001,-0.029999,-0.009999,0.010001,-0.049999,0.000000,-0.049999,-0.029999,0.010001,0.000000,0.030001,0.010001,0.010001,0.010001,-0.089999,0.010001,0.050001,0.000000,0.000000,-0.029999,-0.029999,-0.009999,-0.009999,-0.009999,0.010001,-0.029999,0.000000,0.070001,0.000000,0.010001,0.030001,-0.029999,0.030001,-0.009999,0.030001,-0.009999,-0.009999,0.050001,0.070001,-0.029999,0.070001,0.030001,-0.049999,0.050001,-0.029999,-0.029999,0.010001,0.010001,0.010001,-0.029999,-0.069999
-0.029999,0.010001,0.050001,0.010001,0.000000,0.010001,0.010001,0.030001,-0.029999,0.050001,0.010001,0.030001,-0.069999,0.000000,0.010001,0.010001,-0.009999,-0.029999,0.000000,-0.009999,0.000000,0.070001,0.050001,0.030001,0.090001,-0.009999,0.030001,0.090001,0.010001,0.090001,-0.029999,0.010001,0.050001,-0.029999,-0.009999,0.030001,-0.029999,-0.009999,0.030001,-0.009999,0.050001,0.000000,-0.049999,0.000000,-0.029999,0.050001,-0.009999,0.090001,0.030001,-0.009999,-0.029999,0.070001,0.090001,-0.009999,0.010001,0.000000,0.010001,0.000000,-0.009999,-0.049999,0.010001,0.010001,0.010001,-0.009999,0.010001,0.010001,0.030001,0.030001,0.010001,0.010001,0.030001,0.030001,-0.009999,0.010001,0.000000,0.030001,0.030001,0.010001,0.000000,-0.009999,0.010001,0.000000,0.030001,0.030001,0.030001,0.000000,0.050001,0.030001,-0.029999,0.030001,-0.009999,0.030001,0.010001,0.010001,0.000000,0.000000,0.090001,0.000000,-0.069999,-0.029999
-0.049999,-0.009999,-0.009999,0.000000,-0.009999,-0.009999,0.000000,-0.029999,-0.049999,0.070001,0.000000,0.010001,0.030001,0.070001,0.030001,0.030001,0.050001,0.030001,0.050001,0.010001,-0.049999,0.000000,0.030001,0.050001,0.030001,0.000000,0.050001,-0.009999,-0.009999,0.030001,0.070001,0.000000,0.000000,-0.009999,0.010001,0.050001,0.030001,0.010001,0.000000,0.010001,-0.009999,0.010001,-0.029999,-0.049999,-0.009999,0.030001,0.000000,0.030001,-0.069999,-0.029999,0.030001,0.010001,-0.049999,-0.029999,0.030001,0.000000,-0.009999,-0.049999,0.010001,0.010001,0.000000,-0.049999,-0.009999,-0.029999,-0.049999,0.030001,0.050001,0.010001,0.030001,-0.049999,-0.029999,-0.069999,0.050001,-0.049999,-0.049999,-0.029999,0.050001,0.030001,-0.009999,0.000000,0.000000,0.050001,-0.029999,-0.029999,0.000000,-0.029999,0.030001,0.000000,-0.049999,0.050001,0.010001,-0.029999,-0.009999,-0.009999,-0.009999,0.030001,-0.009999,-0.049999,0.030001,-0.049999
-0.029999,0.050001,0.010001,-0.029999,0.000000,0.050001,0.050001,0.070001,0.050001,-0.029999,0.050001,-0.009999,0.000000,-0.029999,0.010001,-0.069999,0.030001,0.010001,0.030001,0.070001,0.000000,-0.049999,-0.029999,-0.009999,0.010001,-0.049999,-0.049999,0.000000,0.000000,0.010001,-0.029999,0.000000,0.000000,0.010001,-0.009999,-0.009999,0.050001,0.030001,-0.009999,-0.009999,-0.029999,0.030001,-0.089999,-0.029999,0.010001,0.010001,-0.089999,0.010001,-0.009999,-0.009999,0.050001,0.030001,0.010001,0.030001,0.010001,-0.009999,0.000000,-0.029999,0.000000,-0.009999,0.050001,0.050001,-0.029999,0.030001,-0.069999,0.010001,-0.049999,0.070001,0.050001,0.010001,0.030001,-0.009999,-0.009999,0.010001,0.010001,0.070001,-0.049999,-0.029999,0.010001,-0.009999,0.000000,0.000000,-0.009999,-0.049999,-0.009999,-0.009999,-0.029999,-0.089999,0.050001,-0.049999,-0.049999,0.000000,-0.029999,-0.029999,0.010001,-0.069999,0.010001,0.010001,0.010001,-0.029999
-0.009999,-0.009999,0.030001,-0.049999,-0.009999,-0.009999,0.030001,0.010001,0.000000,0.030001,0.070001,0.010001,0.030001,0.030001,0.030001,0.070001,0.050001,-0.009999,0.010001,0.010001,-0.009999,0.010001,0.030001,0.010001,0.030001,-0.029999,0.010001,0.070001,0.000000,0.030001,0.030001,0.030001,0.030001,0.030001,-0.029999,0.010001,-0.009999,-0.029999,0.010001,0.050001,-0.009999,0.050001,-0.029999,-0.009999,-0.009999,0.000000,-0.029999,-0.009999,-0.029999,-0.029999,-0.009999,0.010001,-0.009999,-0.069999,-0.009999,0.010001,0.000000,-0.049999,0.000000,0.000000,-0.009999,-0.049999,-0.009999,0.010001,-0.009999,-0.009999,0.050001,0.010001,-0.009999,0.000000,0.010001,0.010001,0.050001,-0.009999,-0.009999,0.010001,0.050001,0.030001,0.030001,0.050001,-0.009999,0.000000,0.050001,0.050001,0.050001,-0.029999,0.030001,0.010001,-0.049999,0.010001,0.010001,-0.029999,0.000000,-0.049999,0.030001,-0.009999,0.030001,0.000000,-0.049999,0.000000
-0.009999,0.030001,0.030001,-0.049999,-0.009999,-0.009999,0.030001,0.050001,0.030001,-0.009999,0.030001,0.010001,0.030001,-0.049999,-0.049999,0.030001,-0.029999,-0.089999,0.010001,0.010001,0.030001,0.050001,0.030001,-0.069999,-0.009999,0.010001,0.000000,0.030001,0.030001,-0.009999,-0.009999,0.030001,0.030001,0.070001,-0.069999,0.010001,-0.009999,-0.069999,-0.029999,0.010001,0.070001,0.000000,-0.029999,0.030001,0.000000,0.030001,-0.029999,-0.009999,0.050001,0.000000,-0.009999,0.000000,-0.009999,0.010001,-0.049999,0.050001,0.070001,-0.009999,0.010001,0.010001,0.030001,-0.009999,0.030001,0.050001,0.030001,0.030001,0.010001,-0.029999,0.030001,0.000000,0.050001,0.050001,0.000000,-0.009999,0.070001,0.010001,-0.029999,-0.009999,0.030001,-0.029999,0.000000,0.050001,0.000000,0.090001,0.010001,0.010001,0.030001,0.010001,-0.049999,0.000000,0.050001,-0.029999,-0.009999,0.030001,-0.009999,-0.009999,0.030001,-0.009999,-0.009999,-0.009999
0.030001,0.030001,0.070001,-0.049999,0.030001,-0.009999,0.030001,0.000000,-0.009999,0.030001,0.000000,0.050001,0.030001,-0.009999,0.000000,0.070001,-0.029999,-0.049999,-0.029999,0.010001,0.070001,0.090001,0.030001,-0.029999,0.030001,0.050001,0.050001,0.070001,-0.009999,0.030001,-0.009999,-0.009999,-0.009999,0.030001,0.000000,-0.029999,-0.009999,-0.029999,0.010001,0.010001,0.070001,0.010001,0.010001,0.030001,0.030001,0.030001,0.010001,-0.009999,0.050001,0.010001,-0.009999,0.000000,-0.009999,-0.029999,-0.049999,0.050001,0.070001,-0.009999,0.000000,0.050001,-0.009999,-0.009999,0.070001,0.010001,0.070001,0.030001,0.050001,-0.029999,-0.009999,-0.009999,0.010001,0.090001,0.010001,0.030001,0.070001,-0.029999,0.010001,0.000000,0.030001,-0.029999,-0.049999,0.050001,0.090001,0.000000,0.050001,-0.029999,0.070001,0.050001,-0.049999,0.050001,0.050001,-0.029999,0.030001,0.000000,-0.009999,0.030001,0.030001,-0.009999,-0.009999,-0.049999
0.070001,-0.009999,0.070001,-0.049999,0.030001,0.030001,0.030001,0.010001,-0.049999,-0.009999,-0.009999,0.050001,-0.009999,0.030001,0.030001,0.070001,0.010001,0.030001,0.010001,0.050001,0.030001,0.050001,0.030001,0.050001,0.030001,0.010001,0.010001,0.070001,-0.009999,0.030001,0.030001,0.030001,0.030001,0.000000,-0.029999,-0.029999,-0.009999,0.050001,0.010001,-0.029999,-0.009999,0.010001,0.010001,-0.009999,0.000000,0.030001,0.010001,0.000000,0.010001,0.010001,-0.009999,0.010001,0.030001,-0.029999,-0.009999,0.010001,0.070001,0.030001,0.050001,-0.029999,-0.049999,0.030001,-0.009999,0.050001,-0.009999,-0.049999,0.050001,0.010001,-0.049999,-0.009999,0.010001,0.090001,0.000000,0.070001,0.000000,0.010001,0.010001,-0.009999,0.030001,-0.029999,-0.009999,0.050001,0.010001,0.050001,0.000000,0.010001,0.030001,-0.029999,0.030001,0.010001,-0.029999,0.010001,-0.009999,0.000000,0.070001,-0.009999,0.030001,0.030001,0.000000,-0.009999
0.070001,-0.049999,-0.009999,0.000000,0.030001,-0.009999,-0.049999,0.050001,0.030001,-0.049999,0.000000,0.010001,0.000000,-0.009999,0.000000,-0.009999,0.010001,0.030001,0.050001,0.010001,0.000000,-0.029999,-0.009999,0.010001,-0.049999,0.010001,-0.029999,-0.049999,0.030001,-0.049999,0.030001,0.030001,-0.009999,0.070001,-0.069999,0.050001,-0.009999,-0.029999,0.000000,-0.029999,-0.009999,0.010001,0.010001,0.030001,-0.009999,-0.009999,0.050001,-0.009999,0.050001,0.010001,-0.049999,0.010001,-0.009999,0.050001,-0.049999,-0.029999,0.030001,0.030001,0.010001,-0.029999,0.030001,0.030001,-0.049999,0.050001,-0.049999,-0.009999,-0.029999,-0.069999,-0.049999,0.030001,0.010001,0.000000,-0.029999,-0.009999,-0.049999,0.010001,-0.029999,-0.009999,-0.049999,0.000000,-0.009999,-0.029999,0.010001,-0.029999,0.010001,0.000000,-0.049999,-0.029999,0.030001,-0.029999,0.010001,-0.029999,-0.009999,0.030001,0.030001,-0.009999,-0.049999,0.030001,-0.009999,0.070001
0.010001,0.000000,0.090001,-0.029999,0.010001,0.050001,0.010001,-0.009999,-0.029999,0.090001,0.050001,0.070001,0.000000,0.050001,0.010001,0.050001,-0.009999,0.000000,-0.009999,0.030001,0.050001,0.070001,0.050001,0.030001,0.090001,0.070001,0.110001,0.050001,0.010001,0.090001,0.050001,-0.029999,-0.029999,0.010001,-0.009999,-0.009999,0.010001,0.000000,0.000000,-0.009999,0.090001,0.030001,0.000000,0.010001,0.000000,0.000000,0.030001,0.050001,0.030001,0.030001,0.050001,-0.009999,0.010001,-0.009999,-0.029999,0.030001,0.010001,0.010001,0.030001,0.030001,-0.029999,0.010001,0.090001,-0.049999,0.050001,0.010001,0.110001,0.000000,0.000000,0.010001,-0.009999,0.030001,0.000000,0.010001,0.010001,-0.049999,0.000000,0.000000,0.050001,0.030001,-0.029999,0.030001,0.030001,0.070001,0.030001,-0.049999,0.000000,0.030001,-0.029999,0.110001,0.070001,-0.009999,0.050001,-0.029999,-0.029999,0.050001,0.050001,0.000000,0.010001,-0.069999
-0.009999,-0.049999,-0.009999,0.030001,0.030001,-0.049999,-0.049999,-0.029999,-0.049999,0.070001,-0.009999,0.010001,-0.009999,0.030001,-0.009999,0.000000,-0.029999,-0.009999,-0.069999,-0.069999,0.070001,0.050001,0.030001,0.010001,0.030001,0.050001,0.050001,0.030001,-0.049999,0.030001,-0.009999,-0.049999,-0.049999,-0.049999,0.050001,0.010001,-0.049999,-0.069999,0.050001,0.050001,0.030001,0.010001,0.050001,-0.009999,-0.009999,-0.009999,0.000000,0.030001,0.010001,0.010001,0.000000,0.010001,0.030001,-0.029999,-0.009999,0.010001,-0.009999,0.030001,-0.069999,0.000000,-0.009999,-0.049999,0.030001,-0.069999,0.070001,0.030001,0.010001,-0.029999,-0.049999,0.000000,-0.029999,0.010001,-0.029999,-0.009999,0.000000,-0.029999,0.050001,0.000000,0.030001,0.000000,-0.089999,0.010001,0.010001,0.050001,0.000000,-0.029999,0.030001,0.000000,-0.089999,0.050001,0.000000,-0.029999,0.070001,0.030001,-0.049999,0.030001,0.030001,-0.009999,0.000000,-0.009999
0.050001,0.050001,0.010001,0.010001,-0.029999,0.000000,0.010001,-0.009999,0.050001,-0.069999,-0.029999,-0.009999,-0.029999,-0.029999,0.010001,0.000000,-0.009999,0.050001,0.030001,0.030001,-0.029999,-0.049999,-0.069999,-0.009999,-0.029999,-0.009999,-0.049999,-0.029999,0.010001,0.000000,-0.029999,0.050001,0.010001,0.000000,-0.009999,-0.049999,0.010001,0.070001,-0.009999,-0.049999,-0.029999,-0.009999,-0.009999,0.050001,-0.029999,-0.029999,-0.009999,-0.029999,0.030001,0.030001,0.010001,-0.049999,0.010001,-0.009999,0.010001,-0.049999,-0.029999,0.010001,0.030001,-0.009999,0.010001,0.090001,-0.029999,0.000000,-0.029999,-0.029999,-0.009999,-0.009999,0.010001,0.000000,0.030001,0.000000,-0.009999,0.010001,0.010001,-0.009999,0.000000,-0.029999,-0.029999,-0.049999,0.050001,0.000000,-0.049999,-0.049999,0.030001,0.030001,-0.029999,-0.089999,0.000000,-0.049999,-0.049999,0.070001,-0.029999,-0.029999,0.050001,-0.029999,-0.029999,0.010001,0.000000,0.010001
-0.009999,0.030001,0.070001,-0.009999,0.030001,0.030001,-0.009999,-0.029999,-0.049999,0.110001,0.000000,0.090001,0.030001,0.070001,0.030001,0.070001,0.000000,-0.009999,0.000000,0.010001,0.030001,0.050001,0.070001,0.050001,0.000000,0.050001,0.130001,0.030001,-0.009999,0.070001,0.070001,-0.049999,-0.049999,-0.009999,0.010001,0.010001,0.030001,0.010001,0.050001,0.010001,0.070001,0.010001,0.010001,-0.009999,0.030001,0.000000,0.050001,0.070001,0.010001,0.050001,0.030001,0.010001,-0.009999,0.010001,-0.009999,0.010001,-0.009999,0.030001,0.010001,0.050001,-0.049999,-0.009999,0.070001,-0.069999,0.030001,0.030001,0.000000,-0.029999,0.030001,-0.009999,-0.029999,0.010001,0.050001,0.030001,-0.009999,-0.029999,0.050001,0.070001,0.030001,0.050001,-0.049999,0.010001,0.010001,0.050001,0.010001,0.000000,0.110001,0.050001,-0.049999,0.000000,0.050001,-0.029999,0.030001,-0.009999,-0.049999,0.070001,0.030001,-0.009999,0.030001,-0.049999
0.030001,-0.009999,0.030001,-0.009999,-0.009999,0.000000,-0.009999,0.010001,0.030001,0.030001,0.030001,0.010001,0.030001,0.000000,-0.049999,-0.009999,-0.029999,-0.049999,-0.029999,0.010001,0.070001,0.050001,0.030001,-0.029999,0.000000,0.000000,0.050001,-0.009999,0.030001,0.030001,0.030001,-0.009999,-0.049999,0.030001,-0.029999,0.010001,-0.009999,-0.029999,0.010001,0.010001,0.070001,0.050001,0.010001,0.030001,0.070001,0.070001,0.050001,-0.009999,0.050001,0.010001,0.030001,-0.029999,-0.009999,0.000000,0.000000,0.000000,0.030001,-0.009999,0.010001,0.010001,0.030001,-0.009999,0.070001,-0.029999,0.070001,0.000000,0.050001,-0.029999,0.030001,0.030001,0.010001,0.010001,0.000000,-0.049999,-0.009999,-0.069999,0.050001,0.030001,-0.009999,0.010001,-0.049999,0.010001,0.050001,0.050001,0.000000,0.010001,0.070001,0.050001,-0.049999,0.050001,0.000000,0.000000,0.070001,0.030001,-0.009999,0.030001,-0.009999,-0.009999,0.030001,-0.009999
-0.009999,0.000000,-0.009999,0.030001,-0.089999,-0.009999,0.030001,-0.069999,0.030001,-0.049999,-0.049999,-0.029999,-0.049999,-0.009999,-0.009999,-0.009999,-0.029999,-0.009999,0.010001,0.000000,0.030001,0.010001,-0.009999,-0.029999,-0.009999,-0.029999,-0.029999,0.000000,0.030001,-0.009999,-0.049999,0.070001,-0.009999,-0.049999,0.010001,-0.029999,-0.009999,0.050001,-0.029999,-0.029999,-0.009999,-0.029999,0.010001,0.030001,-0.049999,-0.009999,0.010001,-0.009999,0.010001,0.010001,-0.009999,-0.029999,0.030001,-0.029999,0.030001,0.010001,0.000000,0.030001,0.010001,0.000000,-0.009999,0.030001,0.000000,0.010001,0.030001,-0.049999,0.010001,0.010001,0.030001,0.030001,0.050001,0.000000,0.010001,-0.009999,0.030001,-0.029999,0.010001,-0.049999,0.030001,-0.029999,-0.009999,-0.029999,-0.029999,-0.029999,0.010001,-0.029999,-0.009999,-0.029999,0.070001,-0.029999,-0.029999,0.000000,-0.049999,0.000000,0.030001,-0.009999,-0.009999,-0.009999,-0.049999,0.030001
0.050001,-0.029999,0.010001,0.010001,0.050001,0.010001,-0.069999,0.030001,-0.029999,0.050001,0.010001,-0.009999,-0.029999,0.010001,-0.029999,0.000000,-0.049999,0.010001,-0.089999,-0.009999,0.050001,0.030001,-0.029999,0.030001,0.050001,0.110001,0.030001,0.010001,-0.029999,0.050001,0.010001,-0.069999,-0.029999,0.010001,0.000000,-0.009999,-0.069999,-0.009999,0.000000,-0.009999,0.000000,0.030001,0.030001,0.010001,0.050001,0.000000,0.000000,0.010001,0.030001,-0.009999,0.010001,-0.009999,0.050001,-0.009999,-0.029999,-0.009999,-0.029999,0.010001,-0.049999,-0.009999,0.010001,0.010001,0.050001,-0.049999,0.050001,0.010001,0.030001,-0.009999,-0.029999,0.050001,-0.049999,0.030001,-0.009999,0.000000,0.000000,-0.049999,0.070001,0.050001,0.010001,0.000000,-0.029999,-0.009999,-0.009999,0.030001,-0.009999,0.000000,0.050001,0.070001,-0.029999,0.030001,0.070001,0.000000,0.000000,-0.029999,-0.029999,0.010001,0.050001,-0.029999,0.010001,-0.029999
-0.029999,-0.029999,-0.029999,0.050001,-0.029999,-0.029999,0.010001,-0.009999,0.050001,-0.029999,-0.069999,0.000000,0.000000,-0.029999,-0.069999,-0.029999,-0.049999,-0.029999,0.030001,-0.009999,0.000000,0.030001,0.050001,-0.049999,0.000000,-0.009999,0.000000,-0.029999,0.010001,-0.029999,-0.029999,0.050001,0.010001,-0.029999,-0.009999,0.030001,0.010001,0.000000,-0.009999,-0.009999,0.010001,-0.009999,-0.009999,-0.029999,-0.029999,0.010001,0.030001,0.010001,0.030001,-0.009999,-0.029999,0.030001,0.010001,0.000000,-0.029999,0.070001,0.010001,0.050001,-0.049999,-0.009999,0.010001,0.010001,-0.029999,0.030001,0.010001,0.010001,-0.049999,-0.009999,0.010001,0.050001,0.000000,-0.009999,-0.049999,-0.029999,0.010001,-0.009999,-0.049999,-0.029999,0.010001,-0.009999,-0.029999,-0.049999,0.030001,-0.009999,-0.049999,0.030001,-0.029999,0.030001,-0.029999,-0.009999,0.030001,0.030001,-0.029999,0.000000,0.010001,-0.029999,0.000000,0.010001,0.010001,0.050001
0.050001,-0.029999,0.010001,-0.029999,0.000000,0.010001,0.050001,-0.009999,0.010001,-0.069999,-0.029999,-0.009999,-0.029999,-0.029999,-0.029999,0.010001,-0.009999,0.050001,0.000000,0.070001,0.010001,-0.009999,0.010001,-0.009999,-0.029999,-0.009999,-0.049999,0.010001,-0.029999,-0.029999,0.010001,0.090001,0.050001,0.010001,0.000000,-0.049999,0.010001,0.030001,-0.009999,-0.009999,-0.069999,0.030001,-0.009999,-0.029999,-0.029999,0.010001,-0.009999,-0.069999,-0.009999,-0.009999,0.010001,-0.009999,0.000000,-0.049999,-0.029999,0.030001,0.050001,0.010001,0.030001,-0.049999,-0.029999,0.050001,-0.069999,0.070001,-0.029999,-0.069999,-0.009999,0.030001,-0.029999,0.010001,0.070001,0.030001,-0.009999,0.010001,-0.029999,-0.009999,-0.009999,-0.029999,-0.029999,-0.009999,0.010001,0.030001,-0.009999,-0.009999,0.070001,0.030001,-0.029999,0.000000,0.050001,-0.049999,-0.009999,0.030001,-0.029999,0.010001,0.000000,-0.069999,-0.029999,0.050001,-0.029999,0.000000
0.010001,0.010001,0.000000,0.010001,0.010001,0.010001,-0.029999,0.000000,-0.029999,0.050001,0.010001,0.000000,0.090001,0.050001,0.050001,0.050001,0.000000,-0.029999,-0.009999,-0.049999,0.010001,0.030001,0.010001,0.030001,0.010001,0.030001,0.070001,-0.029999,0.050001,0.010001,0.050001,-0.069999,-0.109999,0.010001,-0.009999,0.030001,0.010001,0.030001,-0.009999,-0.009999,0.050001,-0.049999,0.070001,0.050001,0.050001,0.010001,0.070001,0.010001,-0.009999,0.030001,0.010001,-0.049999,0.000000,0.030001,0.010001,-0.009999,0.010001,-0.029999,0.030001,0.070001,-0.029999,-0.069999,0.090001,-0.049999,0.050001,0.010001,0.070001,-0.049999,0.010001,-0.029999,-0.089999,-0.009999,0.000000,0.010001,0.010001,-0.049999,0.000000,0.000000,0.000000,0.030001,-0.069999,-0.009999,-0.009999,0.030001,-0.009999,0.000000,0.000000,0.030001,-0.029999,0.070001,0.030001,-0.009999,0.010001,0.000000,0.000000,0.000000,-0.029999,-0.029999,0.050001,0.010001
-0.029999,0.010001,0.010001,-0.029999,0.010001,0.010001,-0.029999,0.000000,0.000000,0.050001,0.010001,0.000000,-0.069999,0.010001,-0.029999,0.010001,-0.049999,-0.029999,-0.049999,-0.009999,0.010001,0.030001,0.010001,0.030001,0.050001,0.030001,0.000000,0.050001,-0.029999,0.000000,0.010001,-0.029999,0.050001,0.010001,0.030001,-0.009999,-0.069999,-0.009999,-0.009999,-0.009999,0.050001,-0.009999,-0.009999,-0.029999,0.000000,0.010001,-0.049999,0.050001,-0.009999,-0.049999,0.010001,0.070001,0.090001,0.000000,0.050001,-0.009999,0.000000,0.050001,0.000000,-0.049999,-0.029999,0.010001,0.010001,-0.009999,0.000000,0.010001,0.030001,0.030001,0.000000,0.010001,-0.009999,0.030001,-0.009999,0.010001,0.010001,0.030001,0.030001,0.010001,0.090001,-0.009999,0.010001,0.030001,0.030001,0.030001,0.000000,-0.049999,0.050001,0.030001,-0.029999,0.030001,-0.009999,-0.009999,0.050001,-0.029999,-0.029999,-0.029999,0.000000,0.000000,-0.029999,-0.029999
0.010001,-0.029999,0.010001,0.000000,0.010001,0.050001,0.050001,-0.009999,0.010001,0.000000,0.000000,0.030001,0.010001,-0.029999,0.010001,0.010001,0.030001,0.010001,-0.009999,0.030001,0.010001,-0.009999,0.050001,-0.009999,-0.029999,-0.009999,-0.009999,0.010001,-0.029999,-0.029999,0.010001,0.010001,0.010001,-0.029999,0.030001,-0.049999,0.050001,-0.009999,0.000000,0.070001,-0.069999,0.030001,0.030001,-0.029999,0.000000,0.010001,-0.009999,-0.029999,-0.009999,0.070001,0.010001,0.030001,0.000000,0.030001,-0.029999,-0.009999,0.010001,0.050001,0.000000,0.000000,0.010001,0.010001,-0.029999,-0.009999,0.010001,-0.069999,-0.049999,0.030001,-0.029999,-0.029999,0.030001,0.030001,0.000000,0.090001,-0.029999,0.070001,-0.049999,0.010001,-0.029999,-0.049999,0.010001,-0.009999,-0.009999,-0.009999,0.030001,0.030001,-0.029999,-0.009999,0.000000,-0.009999,-0.009999,-0.009999,-0.029999,0.010001,0.050001,-0.029999,-0.029999,0.000000,0.010001,0.050001
0.000000,0.010001,-0.029999,-0.029999,0.010001,0.050001,0.010001,-0.009999,0.010001,0.010001,0.010001,-0.009999,0.050001,-0.029999,0.000000,-0.029999,-0.009999,-0.029999,-0.009999,0.030001,-0.029999,0.000000,0.010001,-0.009999,-0.029999,0.030001,0.000000,-0.069999,0.010001,-0.029999,0.050001,-0.069999,-0.029999,0.010001,0.030001,-0.009999,0.050001,0.030001,-0.049999,-0.009999,0.010001,0.000000,0.000000,-0.029999,0.090001,0.010001,-0.009999,-0.029999,0.000000,-0.009999,0.090001,-0.009999,0.000000,0.070001,0.000000,0.030001,-0.029999,-0.029999,-0.009999,0.070001,-0.029999,-0.029999,0.050001,-0.009999,0.010001,0.010001,-0.009999,0.030001,0.050001,0.010001,-0.049999,-0.009999,0.030001,0.010001,0.010001,-0.009999,-0.049999,-0.029999,-0.069999,0.030001,0.010001,0.000000,-0.009999,-0.009999,-0.049999,-0.009999,0.010001,0.000000,-0.029999,0.030001,0.030001,-0.049999,0.010001,0.010001,0.000000,0.050001,-0.029999,0.010001,0.000000,0.010001
0.010001,0.000000,-0.069999,0.000000,-0.029999,0.010001,-0.029999,-0.009999,0.010001,-0.069999,-0.069999,-0.049999,0.000000,-0.029999,-0.029999,-0.029999,-0.009999,-0.029999,-0.009999,-0.049999,0.010001,-0.009999,0.000000,0.000000,-0.069999,0.000000,0.000000,-0.069999,0.050001,-0.069999,0.010001,0.010001,-0.029999,0.010001,-0.009999,0.030001,-0.029999,-0.009999,-0.049999,-0.009999,-0.029999,-0.049999,0.070001,0.000000,0.010001,-0.029999,0.030001,-0.029999,-0.009999,-0.009999,-0.029999,0.030001,0.010001,0.070001,0.010001,-0.009999,0.010001,0.050001,-0.009999,0.000000,0.010001,-0.029999,-0.029999,0.030001,0.010001,-0.069999,-0.049999,-0.009999,-0.029999,0.010001,-0.009999,-0.009999,0.000000,0.010001,-0.029999,0.000000,-0.049999,-0.069999,-0.029999,-0.049999,-0.029999,-0.049999,-0.009999,-0.049999,-0.009999,0.070001,-0.069999,-0.009999,0.010001,-0.049999,-0.009999,0.030001,-0.029999,0.050001,0.010001,0.010001,-0.029999,0.050001,0.010001,0.000000
